{
  "version": "1.0",
  "truncation": null,
  "padding": null,
  "added_tokens": [],
  "normalizer": {
    "type": "Sequence",
    "normalizers": [
      {
        "type": "NFD"
      },
      {
        "type": "Lowercase"
      },
      {
        "type": "StripAccents"
      }
    ]
  },
  "pre_tokenizer": {
    "type": "Whitespace"
  },
  "post_processor": null,
  "decoder": null,
  "model": {
    "type": "BPE",
    "dropout": null,
    "unk_token": null,
    "continuing_subword_prefix": null,
    "end_of_word_suffix": null,
    "fuse_unk": false,
    "byte_fallback": false,
    "ignore_merges": false,
    "vocab": {
      "!": 0,
      "$": 1,
      "&": 2,
      "'": 3,
      ",": 4,
      "-": 5,
      ".": 6,
      "3": 7,
      ":": 8,
      ";": 9,
      "?": 10,
      "a": 11,
      "b": 12,
      "c": 13,
      "d": 14,
      "e": 15,
      "f": 16,
      "g": 17,
      "h": 18,
      "i": 19,
      "j": 20,
      "k": 21,
      "l": 22,
      "m": 23,
      "n": 24,
      "o": 25,
      "p": 26,
      "q": 27,
      "r": 28,
      "s": 29,
      "t": 30,
      "u": 31,
      "v": 32,
      "w": 33,
      "x": 34,
      "y": 35,
      "z": 36,
      "th": 37,
      "ou": 38,
      "an": 39,
      "er": 40,
      "in": 41,
      "the": 42,
      "or": 43,
      "en": 44,
      "ar": 45,
      "is": 46,
      "and": 47,
      "on": 48,
      "at": 49,
      "st": 50,
      "ll": 51,
      "to": 52,
      "me": 53,
      "you": 54,
      "es": 55,
      "no": 56,
      "ha": 57,
      "ing": 58,
      "se": 59,
      "of": 60,
      "he": 61,
      "be": 62,
      "le": 63,
      "re": 64,
      "wi": 65,
      "wh": 66,
      "ve": 67,
      "it": 68,
      "ch": 69,
      "ro": 70,
      "my": 71,
      "for": 72,
      "ce": 73,
      "as": 74,
      "ay": 75,
      "that": 76,
      "ed": 77,
      "li": 78,
      "ir": 79,
      "we": 80,
      "ere": 81,
      "ld": 82,
      "ut": 83,
      "ke": 84,
      "not": 85,
      "us": 86,
      "ri": 87,
      "de": 88,
      "lo": 89,
      "with": 90,
      "so": 91,
      "gh": 92,
      "ent": 93,
      "co": 94,
      "thou": 95,
      "your": 96,
      "go": 97,
      "hi": 98,
      "ow": 99,
      "our": 100,
      "al": 101,
      "et": 102,
      "ad": 103,
      "his": 104,
      "but": 105,
      "un": 106,
      "this": 107,
      "ther": 108,
      "io": 109,
      "all": 110,
      "have": 111,
      "ard": 112,
      "ly": 113,
      "do": 114,
      "ur": 115,
      "ght": 116,
      "ra": 117,
      "him": 118,
      "ma": 119,
      "king": 120,
      "ord": 121,
      "od": 122,
      "what": 123,
      "pe": 124,
      "now": 125,
      "thy": 126,
      "ess": 127,
      "am": 128,
      "fe": 129,
      "are": 130,
      "ver": 131,
      "sha": 132,
      "one": 133,
      "ti": 134,
      "will": 135,
      "ge": 136,
      "id": 137,
      "ould": 138,
      "fa": 139,
      "ue": 140,
      "ck": 141,
      "ne": 142,
      "man": 143,
      "her": 144,
      "by": 145,
      "la": 146,
      "ta": 147,
      "pr": 148,
      "su": 149,
      "come": 150,
      "if": 151,
      "po": 152,
      "con": 153,
      "ter": 154,
      "shall": 155,
      "lord": 156,
      "tr": 157,
      "end": 158,
      "sh": 159,
      "mor": 160,
      "thee": 161,
      "up": 162,
      "whi": 163,
      "ca": 164,
      "bo": 165,
      "art": 166,
      "ho": 167,
      "mo": 168,
      "let": 169,
      "good": 170,
      "ain": 171,
      "fro": 172,
      "ence": 173,
      "she": 174,
      "te": 175,
      "ust": 176,
      "si": 177,
      "oun": 178,
      "there": 179,
      "ous": 180,
      "du": 181,
      "mar": 182,
      "sel": 183,
      "ry": 184,
      "well": 185,
      "sir": 186,
      "pro": 187,
      "then": 188,
      "from": 189,
      "per": 190,
      "here": 191,
      "was": 192,
      "ius": 193,
      "than": 194,
      "ine": 195,
      "ath": 196,
      "who": 197,
      "um": 198,
      "more": 199,
      "com": 200,
      "ul": 201,
      "which": 202,
      "ble": 203,
      "ion": 204,
      "ant": 205,
      "ster": 206,
      "ven": 207,
      "would": 208,
      "ill": 209,
      "ate": 210,
      "bro": 211,
      "can": 212,
      "ward": 213,
      "they": 214,
      "how": 215,
      "men": 216,
      "say": 217,
      "ong": 218,
      "ight": 219,
      "out": 220,
      "sa": 221,
      "see": 222,
      "wor": 223,
      "love": 224,
      "them": 225,
      "know": 226,
      "row": 227,
      "self": 228,
      "ind": 229,
      "ak": 230,
      "il": 231,
      "ct": 232,
      "their": 233,
      "rich": 234,
      "gre": 235,
      "ie": 236,
      "wo": 237,
      "ive": 238,
      "duke": 239,
      "tis": 240,
      "gl": 241,
      "que": 242,
      "war": 243,
      "like": 244,
      "were": 245,
      "may": 246,
      "hath": 247,
      "ag": 248,
      "where": 249,
      "--": 250,
      "spe": 251,
      "when": 252,
      "fo": 253,
      "fore": 254,
      "ba": 255,
      "ok": 256,
      "uch": 257,
      "nor": 258,
      "vo": 259,
      "some": 260,
      "fir": 261,
      "make": 262,
      "upon": 263,
      "ep": 264,
      "fri": 265,
      "ish": 266,
      "way": 267,
      "should": 268,
      "must": 269,
      "uc": 270,
      "richard": 271,
      "ves": 272,
      "time": 273,
      "yet": 274,
      "queen": 275,
      "did": 276,
      "had": 277,
      "rome": 278,
      "ple": 279,
      "ers": 280,
      "pa": 281,
      "ink": 282,
      "qu": 283,
      "son": 284,
      "ii": 285,
      "br": 286,
      "gra": 287,
      "ure": 288,
      "own": 289,
      "thing": 290,
      "first": 291,
      "ear": 292,
      "why": 293,
      "father": 294,
      "au": 295,
      "der": 296,
      "god": 297,
      "ound": 298,
      "ci": 299,
      "vi": 300,
      "ady": 301,
      "take": 302,
      "edward": 303,
      "use": 304,
      "again": 305,
      "cor": 306,
      "dis": 307,
      "hast": 308,
      "ity": 309,
      "blo": 310,
      "entio": 311,
      "ty": 312,
      "day": 313,
      "el": 314,
      "death": 315,
      "mis": 316,
      "gent": 317,
      "speak": 318,
      "give": 319,
      "pet": 320,
      "ance": 321,
      "too": 322,
      "hen": 323,
      "inc": 324,
      "ince": 325,
      "off": 326,
      "ser": 327,
      "word": 328,
      "na": 329,
      "mer": 330,
      "swe": 331,
      "henry": 332,
      "ort": 333,
      "tell": 334,
      "think": 335,
      "heart": 336,
      "mine": 337,
      "ex": 338,
      "yor": 339,
      "york": 340,
      "gentle": 341,
      "these": 342,
      "look": 343,
      "very": 344,
      "romeo": 345,
      "ful": 346,
      "sp": 347,
      "hand": 348,
      "most": 349,
      "lan": 350,
      "such": 351,
      "mon": 352,
      "hear": 353,
      "ange": 354,
      "cl": 355,
      "hea": 356,
      "less": 357,
      "cester": 358,
      "ab": 359,
      "jo": 360,
      "oucester": 361,
      "gloucester": 362,
      "abe": 363,
      "di": 364,
      "str": 365,
      "ber": 366,
      "brother": 367,
      "land": 368,
      "des": 369,
      "gn": 370,
      "gr": 371,
      "lady": 372,
      "af": 373,
      "bre": 374,
      "blood": 375,
      "wick": 376,
      "ness": 377,
      "other": 378,
      "ju": 379,
      "coun": 380,
      "ac": 381,
      "onour": 382,
      "any": 383,
      "ey": 384,
      "lie": 385,
      "llow": 386,
      "ap": 387,
      "life": 388,
      "made": 389,
      "stand": 390,
      "new": 391,
      "friend": 392,
      "vinc": 393,
      "vincentio": 394,
      "im": 395,
      "warwick": 396,
      "oul": 397,
      "pray": 398,
      "pl": 399,
      "ts": 400,
      "fear": 401,
      "fair": 402,
      "ving": 403,
      "ang": 404,
      "lea": 405,
      "luc": 406,
      "call": 407,
      "urse": 408,
      "night": 409,
      "pre": 410,
      "much": 411,
      "iz": 412,
      "ans": 413,
      "honour": 414,
      "ment": 415,
      "wn": 416,
      "ling": 417,
      "op": 418,
      "ss": 419,
      "never": 420,
      "ise": 421,
      "lt": 422,
      "tion": 423,
      "urn": 424,
      "ic": 425,
      "pla": 426,
      "name": 427,
      "done": 428,
      "ol": 429,
      "inius": 430,
      "sweet": 431,
      "mi": 432,
      "great": 433,
      "tle": 434,
      "est": 435,
      "part": 436,
      "ings": 437,
      "bear": 438,
      "true": 439,
      "heaven": 440,
      "doth": 441,
      "corio": 442,
      "live": 443,
      "age": 444,
      "gar": 445,
      "ice": 446,
      "before": 447,
      "petr": 448,
      "cond": 449,
      "thus": 450,
      "both": 451,
      "cannot": 452,
      "uchio": 453,
      "petruchio": 454,
      "wer": 455,
      "ina": 456,
      "bet": 457,
      "prince": 458,
      "ation": 459,
      "cap": 460,
      "away": 461,
      "noble": 462,
      "head": 463,
      "being": 464,
      "arm": 465,
      "set": 466,
      "rown": 467,
      "fort": 468,
      "ford": 469,
      "lanus": 470,
      "coriolanus": 471,
      "res": 472,
      "ough": 473,
      "been": 474,
      "int": 475,
      "ham": 476,
      "hold": 477,
      "par": 478,
      "pri": 479,
      "ens": 480,
      "juli": 481,
      "enius": 482,
      "menenius": 483,
      "though": 484,
      ",--": 485,
      "fi": 486,
      "wr": 487,
      "juliet": 488,
      "red": 489,
      "cut": 490,
      "fl": 491,
      "ass": 492,
      "second": 493,
      "grace": 494,
      "tho": 495,
      "ouse": 496,
      "rest": 497,
      "master": 498,
      "ase": 499,
      "ever": 500,
      "put": 501,
      "mad": 502,
      "bl": 503,
      "down": 504,
      "pp": 505,
      "ast": 506,
      "long": 507,
      "chi": 508,
      "myself": 509,
      "broke": 510,
      "soul": 511,
      "leave": 512,
      "cour": 513,
      "comes": 514,
      "pt": 515,
      "therefore": 516,
      "ef": 517,
      "poor": 518,
      "world": 519,
      "aught": 520,
      "old": 521,
      "stay": 522,
      "ree": 523,
      "deed": 524,
      "against": 525,
      "dead": 526,
      "pres": 527,
      "ved": 528,
      "isabe": 529,
      "clo": 530,
      "wife": 531,
      "ite": 532,
      "angelo": 533,
      "gu": 534,
      "ars": 535,
      "ret": 536,
      "mother": 537,
      "ies": 538,
      "ont": 539,
      "house": 540,
      "ach": 541,
      "bid": 542,
      "cit": 543,
      "ull": 544,
      "till": 545,
      "cause": 546,
      "ace": 547,
      "bra": 548,
      "che": 549,
      "ga": 550,
      "ign": 551,
      "nay": 552,
      "right": 553,
      "nurse": 554,
      "thought": 555,
      "clar": 556,
      "tri": 557,
      "clarence": 558,
      "ian": 559,
      "might": 560,
      "atch": 561,
      "child": 562,
      "em": 563,
      "eyes": 564,
      "even": 565,
      "tra": 566,
      "beg": 567,
      "bes": 568,
      "die": 569,
      "daught": 570,
      "led": 571,
      "wel": 572,
      "ins": 573,
      "many": 574,
      "show": 575,
      "citiz": 576,
      "sc": 577,
      "ten": 578,
      "tre": 579,
      "friends": 580,
      "boling": 581,
      "bolingbroke": 582,
      "cla": 583,
      "ft": 584,
      "ud": 585,
      "lla": 586,
      "iii": 587,
      "nothing": 588,
      "light": 589,
      "lords": 590,
      "whose": 591,
      "crown": 592,
      "atter": 593,
      "gri": 594,
      "kes": 595,
      "lit": 596,
      "peace": 597,
      "hence": 598,
      "tal": 599,
      "better": 600,
      "isabella": 601,
      "buc": 602,
      "cal": 603,
      "mur": 604,
      "leont": 605,
      "tran": 606,
      "friar": 607,
      "leontes": 608,
      "kind": 609,
      "unto": 610,
      "kingham": 611,
      "buckingham": 612,
      "ban": 613,
      "ks": 614,
      "tong": 615,
      "ison": 616,
      "daughter": 617,
      "cli": 618,
      "gi": 619,
      "pow": 620,
      "sic": 621,
      "comm": 622,
      "cious": 623,
      "those": 624,
      "cam": 625,
      "could": 626,
      "gone": 627,
      "om": 628,
      "hor": 629,
      "face": 630,
      "pose": 631,
      "ps": 632,
      "still": 633,
      "words": 634,
      "cy": 635,
      "iv": 636,
      "sen": 637,
      "two": 638,
      "oud": 639,
      "eng": 640,
      "youn": 641,
      "hel": 642,
      "dear": 643,
      "under": 644,
      "fr": 645,
      "ates": 646,
      "best": 647,
      "keep": 648,
      "murder": 649,
      "tranio": 650,
      "marc": 651,
      "gentleman": 652,
      "lucio": 653,
      "marcius": 654,
      "far": 655,
      "fare": 656,
      "ither": 657,
      "sent": 658,
      "since": 659,
      "news": 660,
      "gue": 661,
      "hour": 662,
      "sla": 663,
      "mean": 664,
      "cont": 665,
      "joy": 666,
      "little": 667,
      "sicinius": 668,
      "pur": 669,
      "thr": 670,
      "full": 671,
      "ond": 672,
      "char": 673,
      "une": 674,
      "ears": 675,
      "able": 676,
      "band": 677,
      "sle": 678,
      "margar": 679,
      "after": 680,
      "margaret": 681,
      "pard": 682,
      "sor": 683,
      "ulet": 684,
      "vir": 685,
      "iss": 686,
      "forth": 687,
      "unt": 688,
      "tain": 689,
      "capulet": 690,
      "once": 691,
      "sub": 692,
      "came": 693,
      "young": 694,
      "pardon": 695,
      "ech": 696,
      "just": 697,
      "ot": 698,
      "happ": 699,
      "roy": 700,
      "liz": 701,
      "whom": 702,
      "back": 703,
      "else": 704,
      "cle": 705,
      "den": 706,
      "tend": 707,
      "himself": 708,
      "law": 709,
      "illo": 710,
      "clif": 711,
      "power": 712,
      "camillo": 713,
      "bus": 714,
      "vol": 715,
      "please": 716,
      "thine": 717,
      "tongue": 718,
      "cur": 719,
      "find": 720,
      "get": 721,
      "high": 722,
      "eliz": 723,
      "abeth": 724,
      "elizabeth": 725,
      "dre": 726,
      "hus": 727,
      "nat": 728,
      "none": 729,
      "arina": 730,
      "need": 731,
      "hope": 732,
      "dr": 733,
      "kath": 734,
      "iness": 735,
      "ason": 736,
      "ried": 737,
      "ield": 738,
      "earth": 739,
      "katharina": 740,
      "car": 741,
      "ted": 742,
      "ye": 743,
      "ought": 744,
      "ark": 745,
      "conf": 746,
      "while": 747,
      "boy": 748,
      "follow": 749,
      "ben": 750,
      "je": 751,
      "wa": 752,
      "ors": 753,
      "comp": 754,
      "bring": 755,
      "place": 756,
      "madam": 757,
      "bal": 758,
      "bod": 759,
      "ces": 760,
      "fall": 761,
      "lay": 762,
      "mind": 763,
      "ople": 764,
      "pat": 765,
      "sit": 766,
      "uck": 767,
      "people": 768,
      "fellow": 769,
      "pom": 770,
      "home": 771,
      "seem": 772,
      "qui": 773,
      "husband": 774,
      "ste": 775,
      "dra": 776,
      "ken": 777,
      "ni": 778,
      "mistr": 779,
      "farewell": 780,
      "dou": 781,
      "last": 782,
      "citizen": 783,
      "bor": 784,
      "bed": 785,
      "bap": 786,
      "lucentio": 787,
      "cous": 788,
      "every": 789,
      "kill": 790,
      "shi": 791,
      "ene": 792,
      "shame": 793,
      "help": 794,
      "baptis": 795,
      "hort": 796,
      "ister": 797,
      "reat": 798,
      "ird": 799,
      "tru": 800,
      "hastings": 801,
      "serv": 802,
      "baptista": 803,
      "dow": 804,
      "over": 805,
      "umber": 806,
      "said": 807,
      "ensio": 808,
      "hortensio": 809,
      "into": 810,
      "utus": 811,
      "morrow": 812,
      "acc": 813,
      "welcome": 814,
      "sun": 815,
      "tem": 816,
      "hands": 817,
      "ction": 818,
      "fal": 819,
      "turn": 820,
      "ory": 821,
      "provo": 822,
      "woman": 823,
      "brutus": 824,
      "about": 825,
      "cousin": 826,
      "servant": 827,
      "heard": 828,
      "reme": 829,
      "dost": 830,
      "try": 831,
      "bri": 832,
      "fer": 833,
      "rep": 834,
      "wit": 835,
      "tears": 836,
      "north": 837,
      "present": 838,
      "mistress": 839,
      "jest": 840,
      "sand": 841,
      "sper": 842,
      "maid": 843,
      "prosper": 844,
      "grum": 845,
      "answer": 846,
      "bur": 847,
      "stri": 848,
      "meet": 849,
      "uty": 850,
      "marry": 851,
      "wrong": 852,
      "royal": 853,
      "provost": 854,
      "ren": 855,
      "sorrow": 856,
      "indeed": 857,
      "state": 858,
      "cho": 859,
      "lies": 860,
      "weep": 861,
      "makes": 862,
      "fai": 863,
      "sign": 864,
      "bu": 865,
      "ru": 866,
      "has": 867,
      "grumio": 868,
      "fid": 869,
      "gen": 870,
      "escal": 871,
      "wilt": 872,
      "vers": 873,
      "prison": 874,
      "cominius": 875,
      "clifford": 876,
      "escalus": 877,
      "pey": 878,
      "paul": 879,
      "gracious": 880,
      "eye": 881,
      "play": 882,
      "pompey": 883,
      "vy": 884,
      "vill": 885,
      "ready": 886,
      "thousand": 887,
      "selves": 888,
      "prove": 889,
      "content": 890,
      "mio": 891,
      "ning": 892,
      "pi": 893,
      "vil": 894,
      "xt": 895,
      "ceive": 896,
      "hither": 897,
      "fool": 898,
      "fortune": 899,
      "doub": 900,
      "three": 901,
      "asure": 902,
      "within": 903,
      "gremio": 904,
      "mercut": 905,
      "bese": 906,
      "mercutio": 907,
      "sound": 908,
      "another": 909,
      "engl": 910,
      "only": 911,
      "its": 912,
      "herd": 913,
      "vice": 914,
      "grief": 915,
      "cus": 916,
      "poli": 917,
      "aufid": 918,
      "swear": 919,
      "claud": 920,
      "happy": 921,
      "body": 922,
      "umberland": 923,
      "northumberland": 924,
      "aufidius": 925,
      "claudio": 926,
      "ged": 927,
      "hate": 928,
      "mb": 929,
      "sed": 930,
      "form": 931,
      "spir": 932,
      "anger": 933,
      "false": 934,
      "faith": 935,
      "pass": 936,
      "vere": 937,
      "chess": 938,
      "low": 939,
      "duchess": 940,
      "thank": 941,
      "comfort": 942,
      "ject": 943,
      "pati": 944,
      "cra": 945,
      "min": 946,
      "send": 947,
      "third": 948,
      "sto": 949,
      "rather": 950,
      "talk": 951,
      "paulina": 952,
      "ouch": 953,
      "kne": 954,
      "ph": 955,
      "rel": 956,
      "itor": 957,
      "sold": 958,
      "got": 959,
      "faul": 960,
      "tybal": 961,
      "monta": 962,
      "virt": 963,
      "hang": 964,
      "matter": 965,
      "arn": 966,
      "times": 967,
      "deser": 968,
      "arms": 969,
      "murderer": 970,
      "tybalt": 971,
      "care": 972,
      "ire": 973,
      "rant": 974,
      "vis": 975,
      "wish": 976,
      "xen": 977,
      "ary": 978,
      "llo": 979,
      "shalt": 980,
      "grave": 981,
      "banish": 982,
      "sleep": 983,
      "beseech": 984,
      "bit": 985,
      "bow": 986,
      "fight": 987,
      "belie": 988,
      "reason": 989,
      "sure": 990,
      "voli": 991,
      "remem": 992,
      "va": 993,
      "wis": 994,
      "stra": 995,
      "med": 996,
      "sovere": 997,
      "command": 998,
      "benvoli": 999,
      "villain": 1000,
      "polixen": 1001,
      "sovereign": 1002,
      "benvolio": 1003,
      "polixenes": 1004,
      "hone": 1005,
      "spo": 1006,
      "ting": 1007,
      "toly": 1008,
      "autoly": 1009,
      "country": 1010,
      "dream": 1011,
      "montague": 1012,
      "autolycus": 1013,
      ",'": 1014,
      "bla": 1015,
      "les": 1016,
      "pherd": 1017,
      "vent": 1018,
      "years": 1019,
      "reven": 1020,
      "holy": 1021,
      "shepherd": 1022,
      "business": 1023,
      "truth": 1024,
      "soldi": 1025,
      "cha": 1026,
      "gon": 1027,
      "ught": 1028,
      "want": 1029,
      "wind": 1030,
      "enough": 1031,
      "sea": 1032,
      "read": 1033,
      "nature": 1034,
      ".'": 1035,
      "bian": 1036,
      "ig": 1037,
      "ious": 1038,
      "went": 1039,
      "common": 1040,
      "things": 1041,
      "gro": 1042,
      "hum": 1043,
      "pity": 1044,
      "yield": 1045,
      "ench": 1046,
      "bea": 1047,
      "lives": 1048,
      "without": 1049,
      "saw": 1050,
      "breath": 1051,
      "clown": 1052,
      "prospero": 1053,
      "doubt": 1054,
      "bianca": 1055,
      "foul": 1056,
      "late": 1057,
      "force": 1058,
      "cold": 1059,
      "uncle": 1060,
      "fect": 1061,
      "proud": 1062,
      "aint": 1063,
      "save": 1064,
      "foot": 1065,
      "appe": 1066,
      "ah": 1067,
      "free": 1068,
      "kiss": 1069,
      "lf": 1070,
      "won": 1071,
      "ask": 1072,
      "laur": 1073,
      "horse": 1074,
      "believe": 1075,
      "city": 1076,
      "kate": 1077,
      "sister": 1078,
      "ator": 1079,
      "ours": 1080,
      "pect": 1081,
      "worthy": 1082,
      "born": 1083,
      "laurence": 1084,
      "fit": 1085,
      "fur": 1086,
      "tit": 1087,
      "win": 1088,
      "wat": 1089,
      "watch": 1090,
      "oft": 1091,
      "worn": 1092,
      "woe": 1093,
      "gods": 1094,
      "break": 1095,
      "subject": 1096,
      "draw": 1097,
      "honest": 1098,
      "cess": 1099,
      "lam": 1100,
      "mir": 1101,
      "ped": 1102,
      "sing": 1103,
      "anne": 1104,
      "deli": 1105,
      "enter": 1106,
      "yourself": 1107,
      "does": 1108,
      "quest": 1109,
      "serving": 1110,
      "return": 1111,
      "mus": 1112,
      "val": 1113,
      "wound": 1114,
      "erle": 1115,
      "means": 1116,
      "mess": 1117,
      "seen": 1118,
      "ush": 1119,
      "yours": 1120,
      "mark": 1121,
      "looks": 1122,
      "bloody": 1123,
      "plain": 1124,
      "court": 1125,
      "through": 1126,
      "justice": 1127,
      "aum": 1128,
      "oath": 1129,
      "ery": 1130,
      "toge": 1131,
      "beat": 1132,
      "left": 1133,
      "widow": 1134,
      "cks": 1135,
      "umni": 1136,
      "fol": 1137,
      "bast": 1138,
      "haste": 1139,
      "mercy": 1140,
      "children": 1141,
      "volumni": 1142,
      "ship": 1143,
      "remember": 1144,
      "aumerle": 1145,
      "volumnia": 1146,
      "cry": 1147,
      "har": 1148,
      "pain": 1149,
      "told": 1150,
      "change": 1151,
      "fire": 1152,
      "traitor": 1153,
      "tender": 1154,
      "gener": 1155,
      "england": 1156,
      "together": 1157,
      "fly": 1158,
      "hun": 1159,
      "ior": 1160,
      "run": 1161,
      "sin": 1162,
      "ition": 1163,
      "dem": 1164,
      "dest": 1165,
      "gold": 1166,
      "cons": 1167,
      "enger": 1168,
      "servingman": 1169,
      "bion": 1170,
      "cre": 1171,
      "ily": 1172,
      "lar": 1173,
      "ms": 1174,
      "ner": 1175,
      "sad": 1176,
      "sword": 1177,
      "half": 1178,
      "ents": 1179,
      "unes": 1180,
      "majest": 1181,
      "suf": 1182,
      "point": 1183,
      "grey": 1184,
      "days": 1185,
      "gaunt": 1186,
      "report": 1187,
      "messenger": 1188,
      "bon": 1189,
      "dare": 1190,
      "danger": 1191,
      "either": 1192,
      "hard": 1193,
      "obe": 1194,
      "because": 1195,
      "thyself": 1196,
      "sup": 1197,
      "sil": 1198,
      "sight": 1199,
      "promis": 1200,
      "person": 1201,
      "thinks": 1202,
      "ices": 1203,
      "flor": 1204,
      "majesty": 1205,
      "bat": 1206,
      "cer": 1207,
      "cates": 1208,
      "dy": 1209,
      "hn": 1210,
      "wise": 1211,
      "ute": 1212,
      "dello": 1213,
      "near": 1214,
      "trust": 1215,
      "known": 1216,
      "warrant": 1217,
      "john": 1218,
      "biondello": 1219,
      "fet": 1220,
      "ses": 1221,
      "touch": 1222,
      "ws": 1223,
      "ze": 1224,
      "toward": 1225,
      "heir": 1226,
      "bold": 1227,
      "paris": 1228,
      "charge": 1229,
      "folk": 1230,
      "catesby": 1231,
      "air": 1232,
      "curse": 1233,
      "grow": 1234,
      "sm": 1235,
      "twas": 1236,
      "ist": 1237,
      "lest": 1238,
      "soon": 1239,
      "ters": 1240,
      "past": 1241,
      "pair": 1242,
      "pluck": 1243,
      "bles": 1244,
      "purpose": 1245,
      "athe": 1246,
      "found": 1247,
      "anti": 1248,
      "wear": 1249,
      "def": 1250,
      "deep": 1251,
      "lost": 1252,
      "alas": 1253,
      "says": 1254,
      "norfolk": 1255,
      "corn": 1256,
      "signior": 1257,
      "igh": 1258,
      "ran": 1259,
      "ore": 1260,
      "hed": 1261,
      "behold": 1262,
      "ceed": 1263,
      "loss": 1264,
      "hermi": 1265,
      "canst": 1266,
      "heavy": 1267,
      "strange": 1268,
      "liege": 1269,
      "izel": 1270,
      "thoughts": 1271,
      "quick": 1272,
      "bury": 1273,
      "spirit": 1274,
      "florizel": 1275,
      "hermione": 1276,
      "each": 1277,
      "mas": 1278,
      "sworn": 1279,
      "twent": 1280,
      "wall": 1281,
      "outh": 1282,
      "ats": 1283,
      "alone": 1284,
      "dom": 1285,
      "fast": 1286,
      "prof": 1287,
      "post": 1288,
      "married": 1289,
      "thanks": 1290,
      "loved": 1291,
      "women": 1292,
      "gentlemen": 1293,
      "strong": 1294,
      "ground": 1295,
      "confess": 1296,
      "twenty": 1297,
      "bour": 1298,
      "ied": 1299,
      "ide": 1300,
      "sur": 1301,
      "instr": 1302,
      "learn": 1303,
      "rivers": 1304,
      "devil": 1305,
      "entreat": 1306,
      "adv": 1307,
      "main": 1308,
      "worth": 1309,
      "quar": 1310,
      "brought": 1311,
      "used": 1312,
      "service": 1313,
      "jud": 1314,
      "stands": 1315,
      "open": 1316,
      "claim": 1317,
      "ength": 1318,
      "slain": 1319,
      "strike": 1320,
      "bound": 1321,
      "dish": 1322,
      "gs": 1323,
      "oth": 1324,
      "having": 1325,
      "lead": 1326,
      "ross": 1327,
      "ides": 1328,
      "press": 1329,
      "suit": 1330,
      "cast": 1331,
      "hop": 1332,
      "knows": 1333,
      "richmon": 1334,
      "woo": 1335,
      "resol": 1336,
      "france": 1337,
      "fault": 1338,
      "straight": 1339,
      "beauty": 1340,
      "richmond": 1341,
      "ecut": 1342,
      "twi": 1343,
      "wed": 1344,
      "lia": 1345,
      "lose": 1346,
      "order": 1347,
      "consu": 1348,
      "sion": 1349,
      "side": 1350,
      "same": 1351,
      "didst": 1352,
      "execut": 1353,
      "grant": 1354,
      "course": 1355,
      "hours": 1356,
      "enemy": 1357,
      "patience": 1358,
      "deliver": 1359,
      "general": 1360,
      "act": 1361,
      "cr": 1362,
      "four": 1363,
      "saint": 1364,
      "wd": 1365,
      "attend": 1366,
      "ley": 1367,
      "ash": 1368,
      "feel": 1369,
      "suc": 1370,
      "ends": 1371,
      "move": 1372,
      "work": 1373,
      "speed": 1374,
      "desire": 1375,
      "senator": 1376,
      "yea": 1377,
      "revenge": 1378,
      "water": 1379,
      "!'": 1380,
      "abo": 1381,
      "duty": 1382,
      "fie": 1383,
      "gain": 1384,
      "ls": 1385,
      "ox": 1386,
      "pen": 1387,
      "twere": 1388,
      "youth": 1389,
      "itself": 1390,
      "som": 1391,
      "counsel": 1392,
      "ments": 1393,
      "guil": 1394,
      "ack": 1395,
      "burn": 1396,
      "dro": 1397,
      "field": 1398,
      "sal": 1399,
      "tro": 1400,
      "ua": 1401,
      "hell": 1402,
      "riage": 1403,
      "withal": 1404,
      "unless": 1405,
      "short": 1406,
      "sake": 1407,
      "ils": 1408,
      "pleasure": 1409,
      "serve": 1410,
      "counter": 1411,
      "prithee": 1412,
      "citizens": 1413,
      "company": 1414,
      "ges": 1415,
      "ob": 1416,
      "sat": 1417,
      "tor": 1418,
      "wret": 1419,
      "met": 1420,
      "chance": 1421,
      "fection": 1422,
      "tale": 1423,
      "safe": 1424,
      "pale": 1425,
      "hearts": 1426,
      "fearful": 1427,
      "pret": 1428,
      "heavens": 1429,
      "flatter": 1430,
      "given": 1431,
      "oxford": 1432,
      "alo": 1433,
      "bar": 1434,
      "dam": 1435,
      "lad": 1436,
      "vour": 1437,
      "yes": 1438,
      "stan": 1439,
      "stir": 1440,
      "become": 1441,
      "lewis": 1442,
      "loving": 1443,
      "cover": 1444,
      "mock": 1445,
      "test": 1446,
      "marriage": 1447,
      "something": 1448,
      "peter": 1449,
      "mies": 1450,
      "ched": 1451,
      "appear": 1452,
      "wonder": 1453,
      "flo": 1454,
      "hark": 1455,
      "pra": 1456,
      "pie": 1457,
      "vow": 1458,
      "whe": 1459,
      "wal": 1460,
      "wast": 1461,
      "throw": 1462,
      "anta": 1463,
      "took": 1464,
      "rah": 1465,
      "mortal": 1466,
      "sick": 1467,
      "sirrah": 1468,
      "voices": 1469,
      "offic": 1470,
      "join": 1471,
      "breathe": 1472,
      "souls": 1473,
      "brave": 1474,
      "cheer": 1475,
      "trib": 1476,
      "virtue": 1477,
      "cri": 1478,
      "ger": 1479,
      "kno": 1480,
      "knew": 1481,
      "soft": 1482,
      "thri": 1483,
      "orge": 1484,
      "lly": 1485,
      "held": 1486,
      "ita": 1487,
      "roman": 1488,
      "ween": 1489,
      "loves": 1490,
      "ally": 1491,
      "neither": 1492,
      "next": 1493,
      "perd": 1494,
      "coming": 1495,
      "worse": 1496,
      "div": 1497,
      "strength": 1498,
      "highness": 1499,
      "tempt": 1500,
      "suffer": 1501,
      "bad": 1502,
      "ff": 1503,
      "mit": 1504,
      "ised": 1505,
      "methinks": 1506,
      "forget": 1507,
      "cept": 1508,
      "lips": 1509,
      "alth": 1510,
      "rage": 1511,
      "kings": 1512,
      "poison": 1513,
      "ended": 1514,
      "caster": 1515,
      "hood": 1516,
      "seek": 1517,
      "elbow": 1518,
      "lancaster": 1519,
      "cloud": 1520,
      "gave": 1521,
      "posed": 1522,
      "enemies": 1523,
      "bless": 1524,
      "cred": 1525,
      "din": 1526,
      "dor": 1527,
      "eper": 1528,
      "gates": 1529,
      "harm": 1530,
      "mow": 1531,
      "ose": 1532,
      "rat": 1533,
      "thor": 1534,
      "ished": 1535,
      "anda": 1536,
      "tower": 1537,
      "sebast": 1538,
      "usur": 1539,
      "eter": 1540,
      "pos": 1541,
      "book": 1542,
      "march": 1543,
      "cian": 1544,
      "cient": 1545,
      "dire": 1546,
      "between": 1547,
      "ceived": 1548,
      "black": 1549,
      "further": 1550,
      "title": 1551,
      "miranda": 1552,
      "certain": 1553,
      "sebastian": 1554,
      "cure": 1555,
      "cham": 1556,
      "dden": 1557,
      "eld": 1558,
      "fill": 1559,
      "gard": 1560,
      "mouth": 1561,
      "pit": 1562,
      "pare": 1563,
      "spr": 1564,
      "vio": 1565,
      "zalo": 1566,
      "stre": 1567,
      "stop": 1568,
      "often": 1569,
      "george": 1570,
      "poss": 1571,
      "consent": 1572,
      "bosom": 1573,
      "anton": 1574,
      "merry": 1575,
      "chee": 1576,
      "grie": 1577,
      "virtu": 1578,
      "soldier": 1579,
      "gonzalo": 1580,
      "ile": 1581,
      "sk": 1582,
      "inter": 1583,
      "arch": 1584,
      "ated": 1585,
      "weak": 1586,
      "along": 1587,
      "already": 1588,
      "proceed": 1589,
      "themselves": 1590,
      "iel": 1591,
      "speech": 1592,
      "foe": 1593,
      "base": 1594,
      "bray": 1595,
      "office": 1596,
      "breast": 1597,
      "writ": 1598,
      "issue": 1599,
      "spoke": 1600,
      "satis": 1601,
      "tribunes": 1602,
      "antonio": 1603,
      "lst": 1604,
      "pay": 1605,
      "ris": 1606,
      "sly": 1607,
      "request": 1608,
      "vel": 1609,
      "eds": 1610,
      "liant": 1611,
      "liber": 1612,
      "goes": 1613,
      "unk": 1614,
      "feast": 1615,
      "morning": 1616,
      "whilst": 1617,
      "hot": 1618,
      "marian": 1619,
      "hereford": 1620,
      "green": 1621,
      "sons": 1622,
      "fles": 1623,
      "thomas": 1624,
      "begin": 1625,
      "deny": 1626,
      "brief": 1627,
      "soldiers": 1628,
      "dangerous": 1629,
      "battle": 1630,
      "fetch": 1631,
      "quarrel": 1632,
      "stanley": 1633,
      "perdita": 1634,
      "mowbray": 1635,
      "bs": 1636,
      "cas": 1637,
      "fra": 1638,
      "hind": 1639,
      "kna": 1640,
      "plo": 1641,
      "pal": 1642,
      "pite": 1643,
      "ons": 1644,
      "cher": 1645,
      "forward": 1646,
      "west": 1647,
      "sum": 1648,
      "trou": 1649,
      "case": 1650,
      "frown": 1651,
      "sigh": 1652,
      "prop": 1653,
      "thence": 1654,
      "gree": 1655,
      "voice": 1656,
      "hadst": 1657,
      "vile": 1658,
      "vict": 1659,
      "offer": 1660,
      "scar": 1661,
      "patient": 1662,
      "visit": 1663,
      "wounds": 1664,
      "consul": 1665,
      "officer": 1666,
      "mariana": 1667,
      "bis": 1668,
      "ding": 1669,
      "dark": 1670,
      "fres": 1671,
      "gall": 1672,
      "ima": 1673,
      "rup": 1674,
      "ined": 1675,
      "ones": 1676,
      "town": 1677,
      "mes": 1678,
      "ced": 1679,
      "cell": 1680,
      "keeper": 1681,
      "amp": 1682,
      "wash": 1683,
      "wars": 1684,
      "ways": 1685,
      "action": 1686,
      "mile": 1687,
      "respect": 1688,
      "presence": 1689,
      "close": 1690,
      "dread": 1691,
      "bride": 1692,
      "witness": 1693,
      "music": 1694,
      "promise": 1695,
      "possess": 1696,
      "cup": 1697,
      "da": 1698,
      "flow": 1699,
      "hy": 1700,
      "hur": 1701,
      "lond": 1702,
      "ned": 1703,
      "ost": 1704,
      "port": 1705,
      "wain": 1706,
      "ancient": 1707,
      "stain": 1708,
      "measure": 1709,
      "rever": 1710,
      "somer": 1711,
      "col": 1712,
      "gover": 1713,
      "hip": 1714,
      "sudden": 1715,
      "sible": 1716,
      "worship": 1717,
      "wherein": 1718,
      "wert": 1719,
      "heads": 1720,
      "deeds": 1721,
      "mighty": 1722,
      "beggar": 1723,
      "throne": 1724,
      "fully": 1725,
      "natur": 1726,
      "seems": 1727,
      "buy": 1728,
      "lament": 1729,
      "small": 1730,
      "success": 1731,
      "chamber": 1732,
      "london": 1733,
      "eat": 1734,
      "ging": 1735,
      "plan": 1736,
      "swi": 1737,
      "sus": 1738,
      "scorn": 1739,
      "thither": 1740,
      "chur": 1741,
      "sol": 1742,
      "almost": 1743,
      "tius": 1744,
      "ided": 1745,
      "ions": 1746,
      "earl": 1747,
      "count": 1748,
      "prayers": 1749,
      "princely": 1750,
      "slave": 1751,
      "lawful": 1752,
      "bitter": 1753,
      "valiant": 1754,
      "ughter": 1755,
      "lartius": 1756,
      "somerset": 1757,
      "bly": 1758,
      "cent": 1759,
      "creat": 1760,
      "cross": 1761,
      "eth": 1762,
      "eas": 1763,
      "five": 1764,
      "match": 1765,
      "spa": 1766,
      "sland": 1767,
      "tent": 1768,
      "ub": 1769,
      "whence": 1770,
      "chang": 1771,
      "lip": 1772,
      "coward": 1773,
      "til": 1774,
      "ider": 1775,
      "favour": 1776,
      "condem": 1777,
      "moon": 1778,
      "moved": 1779,
      "six": 1780,
      "umpet": 1781,
      "umph": 1782,
      "glad": 1783,
      "pleas": 1784,
      "ured": 1785,
      "abhor": 1786,
      "affection": 1787,
      "appro": 1788,
      "triumph": 1789,
      "cliff": 1790,
      "presently": 1791,
      "faults": 1792,
      "above": 1793,
      "pretty": 1794,
      "antage": 1795,
      "knock": 1796,
      "ratcliff": 1797,
      "flesh": 1798,
      "bishop": 1799,
      "apo": 1800,
      "dar": 1801,
      "fond": 1802,
      "kins": 1803,
      "mill": 1804,
      "ns": 1805,
      "ny": 1806,
      "pas": 1807,
      "patch": 1808,
      "tut": 1809,
      "uff": 1810,
      "wak": 1811,
      "stor": 1812,
      "stant": 1813,
      "forbid": 1814,
      "lic": 1815,
      "depart": 1816,
      "alack": 1817,
      "mali": 1818,
      "among": 1819,
      "willing": 1820,
      "gest": 1821,
      "tail": 1822,
      "princ": 1823,
      "tear": 1824,
      "mayor": 1825,
      "bawd": 1826,
      "firm": 1827,
      "grand": 1828,
      "least": 1829,
      "quiet": 1830,
      "deserved": 1831,
      "subjects": 1832,
      "obey": 1833,
      "towards": 1834,
      "whether": 1835,
      "church": 1836,
      "awhile": 1837,
      "bir": 1838,
      "ease": 1839,
      "fine": 1840,
      "mid": 1841,
      "anon": 1842,
      "ariel": 1843,
      "hap": 1844,
      "seal": 1845,
      "hemi": 1846,
      "beast": 1847,
      "living": 1848,
      "rid": 1849,
      "ghost": 1850,
      "hide": 1851,
      "add": 1852,
      "doing": 1853,
      "kingdom": 1854,
      "feit": 1855,
      "conce": 1856,
      "bohemi": 1857,
      "prov": 1858,
      "perform": 1859,
      "wouldst": 1860,
      "warm": 1861,
      "cience": 1862,
      "cians": 1863,
      "dispatch": 1864,
      "hearing": 1865,
      "mild": 1866,
      "fied": 1867,
      "brace": 1868,
      "gilia": 1869,
      "slaughter": 1870,
      "virgilia": 1871,
      "curtis": 1872,
      "drum": 1873,
      "wake": 1874,
      "weeping": 1875,
      "pier": 1876,
      "musi": 1877,
      "obedi": 1878,
      "defend": 1879,
      "dishonour": 1880,
      "execution": 1881,
      "viol": 1882,
      "virtuous": 1883,
      "barn": 1884,
      "fled": 1885,
      "ia": 1886,
      "oc": 1887,
      "wench": 1888,
      "year": 1889,
      "ines": 1890,
      "inno": 1891,
      "behind": 1892,
      "lect": 1893,
      "wild": 1894,
      "chris": 1895,
      "ourselves": 1896,
      "ties": 1897,
      "sho": 1898,
      "whither": 1899,
      "letters": 1900,
      "goodly": 1901,
      "teach": 1902,
      "proclaim": 1903,
      "perate": 1904,
      "worst": 1905,
      "greet": 1906,
      "ief": 1907,
      "wherefore": 1908,
      "blows": 1909,
      "offence": 1910,
      "extre": 1911,
      "greater": 1912,
      "masters": 1913,
      "guard": 1914,
      "besides": 1915,
      "ledge": 1916,
      "treason": 1917,
      "kindness": 1918,
      "commend": 1919,
      "drink": 1920,
      "stood": 1921,
      "kneel": 1922,
      "gonus": 1923,
      "antigonus": 1924,
      "quickly": 1925,
      "guilty": 1926,
      "ladies": 1927,
      "piece": 1928,
      "fresh": 1929,
      "govern": 1930,
      "slander": 1931,
      "birth": 1932,
      "bohemia": 1933,
      "cord": 1934,
      "dle": 1935,
      "dry": 1936,
      "gir": 1937,
      "kin": 1938,
      "mut": 1939,
      "moun": 1940,
      "ror": 1941,
      "rut": 1942,
      "rough": 1943,
      "sy": 1944,
      "ues": 1945,
      "yon": 1946,
      "zed": 1947,
      "anch": 1948,
      "isure": 1949,
      "leisure": 1950,
      "rew": 1951,
      "rebe": 1952,
      "reign": 1953,
      "aside": 1954,
      "ket": 1955,
      "note": 1956,
      "sole": 1957,
      "few": 1958,
      "neck": 1959,
      "neigh": 1960,
      "laid": 1961,
      "lack": 1962,
      "posit": 1963,
      "trumpet": 1964,
      "shed": 1965,
      "womb": 1966,
      "quit": 1967,
      "derby": 1968,
      "exeter": 1969,
      "spur": 1970,
      "cles": 1971,
      "died": 1972,
      "lands": 1973,
      "longer": 1974,
      "isabel": 1975,
      "shows": 1976,
      "slew": 1977,
      "needs": 1978,
      "truly": 1979,
      "knee": 1980,
      "banishment": 1981,
      "pedant": 1982,
      "golden": 1983,
      "usurp": 1984,
      "possible": 1985,
      "trouble": 1986,
      "natural": 1987,
      "rutland": 1988,
      "ale": 1989,
      "cret": 1990,
      "dance": 1991,
      "evil": 1992,
      "fat": 1993,
      "fing": 1994,
      "fam": 1995,
      "hat": 1996,
      "ker": 1997,
      "pad": 1998,
      "ring": 1999,
      "yond": 2000,
      "zen": 2001,
      "noise": 2002,
      "seiz": 2003,
      "reck": 2004,
      "remain": 2005,
      "white": 2006,
      "until": 2007,
      "dog": 2008,
      "doom": 2009,
      "ures": 2010,
      "pest": 2011,
      "amen": 2012,
      "tagen": 2013,
      "letter": 2014,
      "ument": 2015,
      "broad": 2016,
      "fright": 2017,
      "blow": 2018,
      "sport": 2019,
      "ples": 2020,
      "angry": 2021,
      "courage": 2022,
      "banished": 2023,
      "sense": 2024,
      "sentence": 2025,
      "choose": 2026,
      "prisoner": 2027,
      "english": 2028,
      "ignor": 2029,
      "conscience": 2030,
      "walk": 2031,
      "clouds": 2032,
      "liberty": 2033,
      "plantagen": 2034,
      "padua": 2035,
      "plantagenet": 2036,
      ":'": 2037,
      "ather": 2038,
      "cing": 2039,
      "cried": 2040,
      "drown": 2041,
      "dred": 2042,
      "lend": 2043,
      "lust": 2044,
      "rise": 2045,
      "sort": 2046,
      "tar": 2047,
      "ual": 2048,
      "vain": 2049,
      "xi": 2050,
      "eness": 2051,
      "enjoy": 2052,
      "ators": 2053,
      "stone": 2054,
      "step": 2055,
      "seat": 2056,
      "sever": 2057,
      "seven": 2058,
      "secret": 2059,
      "vey": 2060,
      "forgot": 2061,
      "ardine": 2062,
      "shake": 2063,
      "manner": 2064,
      "labour": 2065,
      "proof": 2066,
      "glass": 2067,
      "fold": 2068,
      "page": 2069,
      "miss": 2070,
      "speaks": 2071,
      "despair": 2072,
      "plant": 2073,
      "oler": 2074,
      "bears": 2075,
      "lived": 2076,
      "inted": 2077,
      "blind": 2078,
      "contin": 2079,
      "drunk": 2080,
      "phy": 2081,
      "hundred": 2082,
      "bones": 2083,
      "blessed": 2084,
      "garden": 2085,
      "victory": 2086,
      "swift": 2087,
      "barnardine": 2088,
      "!--": 2089,
      "aid": 2090,
      "alive": 2091,
      "big": 2092,
      "fan": 2093,
      "grown": 2094,
      "hu": 2095,
      "lis": 2096,
      "mone": 2097,
      "mil": 2098,
      "scho": 2099,
      "threat": 2100,
      "encounter": 2101,
      "star": 2102,
      "weary": 2103,
      "kept": 2104,
      "yourselves": 2105,
      "going": 2106,
      "adie": 2107,
      "odd": 2108,
      "fell": 2109,
      "shadow": 2110,
      "uel": 2111,
      "herself": 2112,
      "supp": 2113,
      "shore": 2114,
      "ustom": 2115,
      "sim": 2116,
      "umb": 2117,
      "ular": 2118,
      "venge": 2119,
      "knowledge": 2120,
      "woes": 2121,
      "glory": 2122,
      "quite": 2123,
      "author": 2124,
      "ounds": 2125,
      "clam": 2126,
      "struck": 2127,
      "desperate": 2128,
      "liest": 2129,
      "precious": 2130,
      "condition": 2131,
      "pride": 2132,
      "blush": 2133,
      "effect": 2134,
      "guess": 2135,
      "lordship": 2136,
      "fru": 2137,
      "bushy": 2138,
      "vols": 2139,
      "steel": 2140,
      "knees": 2141,
      "watchman": 2142,
      "entertain": 2143,
      "bastard": 2144,
      "consider": 2145,
      "twice": 2146,
      "twixt": 2147,
      "wretch": 2148,
      "dorset": 2149,
      "kinsman": 2150,
      "position": 2151,
      "money": 2152,
      "school": 2153,
      "adieu": 2154,
      ";'": 2155,
      "bend": 2156,
      "dain": 2157,
      "fought": 2158,
      "gment": 2159,
      "gory": 2160,
      "ier": 2161,
      "mour": 2162,
      "mble": 2163,
      "mity": 2164,
      "sour": 2165,
      "samp": 2166,
      "ton": 2167,
      "vouch": 2168,
      "thin": 2169,
      "enforce": 2170,
      "army": 2171,
      "stars": 2172,
      "tol": 2173,
      "top": 2174,
      "hair": 2175,
      "becomes": 2176,
      "ities": 2177,
      "rot": 2178,
      "ires": 2179,
      "ries": 2180,
      "deter": 2181,
      "ads": 2182,
      "allow": 2183,
      "table": 2184,
      "contr": 2185,
      "cape": 2186,
      "thereof": 2187,
      "persu": 2188,
      "sail": 2189,
      "uction": 2190,
      "quoth": 2191,
      "spent": 2192,
      "brothers": 2193,
      "aff": 2194,
      "afford": 2195,
      "standing": 2196,
      "calls": 2197,
      "prepar": 2198,
      "prepare": 2199,
      "honours": 2200,
      "honourable": 2201,
      "ations": 2202,
      "deadly": 2203,
      "braken": 2204,
      "gives": 2205,
      "guest": 2206,
      "steal": 2207,
      "repent": 2208,
      "foolish": 2209,
      "dreams": 2210,
      "promised": 2211,
      "judge": 2212,
      "gainst": 2213,
      "wretched": 2214,
      "flower": 2215,
      "cheeks": 2216,
      "scarce": 2217,
      "flowers": 2218,
      "sampson": 2219,
      "brakenbury": 2220,
      "ama": 2221,
      "avo": 2222,
      "dur": 2223,
      "due": 2224,
      "rrel": 2225,
      "smile": 2226,
      "tua": 2227,
      "ude": 2228,
      "vate": 2229,
      "vie": 2230,
      "wing": 2231,
      "wra": 2232,
      "orious": 2233,
      "arri": 2234,
      "stab": 2235,
      "esy": 2236,
      "health": 2237,
      "ref": 2238,
      "itors": 2239,
      "utter": 2240,
      "deput": 2241,
      "lod": 2242,
      "cock": 2243,
      "ets": 2244,
      "door": 2245,
      "ury": 2246,
      "making": 2247,
      "tide": 2248,
      "ney": 2249,
      "convey": 2250,
      "motion": 2251,
      "froth": 2252,
      "teen": 2253,
      "dull": 2254,
      "ility": 2255,
      "gregory": 2256,
      "foes": 2257,
      "early": 2258,
      "tyrrel": 2259,
      "exc": 2260,
      "month": 2261,
      "dies": 2262,
      "account": 2263,
      "priest": 2264,
      "bids": 2265,
      "kindred": 2266,
      "commit": 2267,
      "charity": 2268,
      "subst": 2269,
      "pleased": 2270,
      "carry": 2271,
      "wail": 2272,
      "fellows": 2273,
      "overdone": 2274,
      "temper": 2275,
      "renown": 2276,
      "vail": 2277,
      "wisdom": 2278,
      "humble": 2279,
      "valour": 2280,
      "demand": 2281,
      "silence": 2282,
      "cruel": 2283,
      "divine": 2284,
      "satisfied": 2285,
      "summer": 2286,
      "spake": 2287,
      "musician": 2288,
      "girl": 2289,
      ":--": 2290,
      "abroad": 2291,
      "bright": 2292,
      "bird": 2293,
      "cir": 2294,
      "cun": 2295,
      "dwell": 2296,
      "mal": 2297,
      "ners": 2298,
      "por": 2299,
      "pes": 2300,
      "pun": 2301,
      "sco": 2302,
      "smo": 2303,
      "ume": 2304,
      "wine": 2305,
      "yal": 2306,
      "thro": 2307,
      "inf": 2308,
      "ining": 2309,
      "envy": 2310,
      "stro": 2311,
      "reg": 2312,
      "roar": 2313,
      "cease": 2314,
      "edom": 2315,
      "weigh": 2316,
      "del": 2317,
      "deal": 2318,
      "loyal": 2319,
      "als": 2320,
      "fest": 2321,
      "idle": 2322,
      "faint": 2323,
      "nest": 2324,
      "lau": 2325,
      "taken": 2326,
      "iful": 2327,
      "concl": 2328,
      "shar": 2329,
      "whiles": 2330,
      "therein": 2331,
      "proper": 2332,
      "ult": 2333,
      "brow": 2334,
      "quer": 2335,
      "vices": 2336,
      "tyrant": 2337,
      "miser": 2338,
      "petition": 2339,
      "incl": 2340,
      "others": 2341,
      "county": 2342,
      "acle": 2343,
      "party": 2344,
      "parti": 2345,
      "private": 2346,
      "blunt": 2347,
      "trial": 2348,
      "sces": 2349,
      "meaning": 2350,
      "volsces": 2351,
      "drawn": 2352,
      "crave": 2353,
      "minister": 2354,
      "stoop": 2355,
      "blame": 2356,
      "chase": 2357,
      "groom": 2358,
      "winter": 2359,
      "honesty": 2360,
      "question": 2361,
      "harry": 2362,
      "walls": 2363,
      "judgment": 2364,
      "castle": 2365,
      "drop": 2366,
      "spring": 2367,
      "imag": 2368,
      "creature": 2369,
      "condemn": 2370,
      "malice": 2371,
      "vengeance": 2372,
      "'?": 2373,
      "awake": 2374,
      "bas": 2375,
      "bite": 2376,
      "fla": 2377,
      "gage": 2378,
      "ick": 2379,
      "mn": 2380,
      "nine": 2381,
      "ome": 2382,
      "round": 2383,
      "swords": 2384,
      "wag": 2385,
      "yard": 2386,
      "eria": 2387,
      "ander": 2388,
      "ona": 2389,
      "stones": 2390,
      "meat": 2391,
      "sell": 2392,
      "belike": 2393,
      "received": 2394,
      "wixt": 2395,
      "vell": 2396,
      "former": 2397,
      "eding": 2398,
      "ution": 2399,
      "dev": 2400,
      "wither": 2401,
      "gown": 2402,
      "shal": 2403,
      "tid": 2404,
      "ident": 2405,
      "fain": 2406,
      "necess": 2407,
      "mantua": 2408,
      "condu": 2409,
      "shri": 2410,
      "caius": 2411,
      "bot": 2412,
      "boot": 2413,
      "modest": 2414,
      "tect": 2415,
      "marshal": 2416,
      "blest": 2417,
      "brows": 2418,
      "sage": 2419,
      "sacred": 2420,
      "iles": 2421,
      "mayst": 2422,
      "sometime": 2423,
      "qual": 2424,
      "cial": 2425,
      "vious": 2426,
      "corse": 2427,
      "tyran": 2428,
      "mistake": 2429,
      "despite": 2430,
      "counten": 2431,
      "acqu": 2432,
      "prevent": 2433,
      "corioli": 2434,
      "betwixt": 2435,
      "captain": 2436,
      "clock": 2437,
      "embrace": 2438,
      "tract": 2439,
      "traitors": 2440,
      "tread": 2441,
      "tongues": 2442,
      "charged": 2443,
      "patri": 2444,
      "double": 2445,
      "maids": 2446,
      "buried": 2447,
      "contented": 2448,
      "deserve": 2449,
      "venture": 2450,
      "gross": 2451,
      "humour": 2452,
      "valeria": 2453,
      "bona": 2454,
      "profess": 2455,
      "troth": 2456,
      "direct": 2457,
      "prophe": 2458,
      "easy": 2459,
      "changed": 2460,
      "tailor": 2461,
      "finger": 2462,
      "simple": 2463,
      "fruit": 2464,
      "view": 2465,
      "deputy": 2466,
      "excuse": 2467,
      "laugh": 2468,
      "aim": 2469,
      "bark": 2470,
      "cat": 2471,
      "cking": 2472,
      "custom": 2473,
      "dri": 2474,
      "dust": 2475,
      "ely": 2476,
      "fret": 2477,
      "gif": 2478,
      "ja": 2479,
      "ler": 2480,
      "vish": 2481,
      "wof": 2482,
      "wont": 2483,
      "stuff": 2484,
      "llen": 2485,
      "noon": 2486,
      "nose": 2487,
      "beard": 2488,
      "reti": 2489,
      "receive": 2490,
      "root": 2491,
      "wealth": 2492,
      "deceived": 2493,
      "loath": 2494,
      "although": 2495,
      "always": 2496,
      "arest": 2497,
      "verona": 2498,
      "neg": 2499,
      "pron": 2500,
      "iff": 2501,
      "constant": 2502,
      "conquer": 2503,
      "sheep": 2504,
      "sire": 2505,
      "percy": 2506,
      "perceive": 2507,
      "stern": 2508,
      "broken": 2509,
      "wood": 2510,
      "whereof": 2511,
      "plead": 2512,
      "jove": 2513,
      "affair": 2514,
      "wicked": 2515,
      "imprison": 2516,
      "import": 2517,
      "leaves": 2518,
      "plague": 2519,
      "resign": 2520,
      "fiery": 2521,
      "emp": 2522,
      "faced": 2523,
      "senate": 2524,
      "understand": 2525,
      "benef": 2526,
      "sits": 2527,
      "remedy": 2528,
      "wrongs": 2529,
      "choice": 2530,
      "rude": 2531,
      "reasons": 2532,
      "pains": 2533,
      "silver": 2534,
      "cursed": 2535,
      "advance": 2536,
      "resolved": 2537,
      "knave": 2538,
      "abhorson": 2539,
      "yonder": 2540,
      "fatal": 2541,
      "prepared": 2542,
      "circ": 2543,
      "?'": 2544,
      "bb": 2545,
      "ball": 2546,
      "cen": 2547,
      "crow": 2548,
      "ele": 2549,
      "fre": 2550,
      "ild": 2551,
      "itol": 2552,
      "jour": 2553,
      "kni": 2554,
      "mere": 2555,
      "number": 2556,
      "owe": 2557,
      "oking": 2558,
      "pis": 2559,
      "ping": 2560,
      "psa": 2561,
      "ras": 2562,
      "rate": 2563,
      "sue": 2564,
      "sence": 2565,
      "sday": 2566,
      "twel": 2567,
      "wings": 2568,
      "thir": 2569,
      "thunder": 2570,
      "ances": 2571,
      "inher": 2572,
      "inous": 2573,
      "inform": 2574,
      "orn": 2575,
      "oracle": 2576,
      "hail": 2577,
      "haps": 2578,
      "belly": 2579,
      "lean": 2580,
      "whis": 2581,
      "ites": 2582,
      "ited": 2583,
      "rock": 2584,
      "weeds": 2585,
      "key": 2586,
      "deb": 2587,
      "delight": 2588,
      "delay": 2589,
      "deposed": 2590,
      "sooth": 2591,
      "hie": 2592,
      "butcher": 2593,
      "undone": 2594,
      "rain": 2595,
      "mamill": 2596,
      "tive": 2597,
      "taste": 2598,
      "conspir": 2599,
      "contract": 2600,
      "tres": 2601,
      "shut": 2602,
      "cali": 2603,
      "host": 2604,
      "hollow": 2605,
      "mopsa": 2606,
      "complain": 2607,
      "safet": 2608,
      "seeing": 2609,
      "wore": 2610,
      "aked": 2611,
      "ctise": 2612,
      "pack": 2613,
      "pawn": 2614,
      "mission": 2615,
      "gentlewoman": 2616,
      "absence": 2617,
      "design": 2618,
      "accept": 2619,
      "appare": 2620,
      "prayer": 2621,
      "capitol": 2622,
      "intend": 2623,
      "holds": 2624,
      "write": 2625,
      "assist": 2626,
      "preser": 2627,
      "treach": 2628,
      "senators": 2629,
      "keeps": 2630,
      "fares": 2631,
      "pursu": 2632,
      "thrust": 2633,
      "sorry": 2634,
      "clear": 2635,
      "cares": 2636,
      "tedious": 2637,
      "jeal": 2638,
      "seeming": 2639,
      "borne": 2640,
      "witch": 2641,
      "passing": 2642,
      "vised": 2643,
      "wanton": 2644,
      "fury": 2645,
      "hung": 2646,
      "destroy": 2647,
      "supper": 2648,
      "resolve": 2649,
      "practise": 2650,
      "cheek": 2651,
      "plot": 2652,
      "colour": 2653,
      "approach": 2654,
      "apollo": 2655,
      "princes": 2656,
      "obedience": 2657,
      "violent": 2658,
      "occas": 2659,
      "christi": 2660,
      "neighbour": 2661,
      "trumpets": 2662,
      "seize": 2663,
      "ignorant": 2664,
      "authority": 2665,
      "rotten": 2666,
      "wrath": 2667,
      "tidings": 2668,
      "countenance": 2669,
      "pronoun": 2670,
      "twelve": 2671,
      "mamillius": 2672,
      "safety": 2673,
      "aed": 2674,
      "bond": 2675,
      "cro": 2676,
      "ek": 2677,
      "fas": 2678,
      "fif": 2679,
      "flies": 2680,
      "hit": 2681,
      "hunt": 2682,
      "ial": 2683,
      "list": 2684,
      "ots": 2685,
      "pul": 2686,
      "pub": 2687,
      "rash": 2688,
      "sme": 2689,
      "sli": 2690,
      "tur": 2691,
      "tune": 2692,
      "uct": 2693,
      "vantage": 2694,
      "zard": 2695,
      "thur": 2696,
      "inch": 2697,
      "inion": 2698,
      "envious": 2699,
      "stat": 2700,
      "stud": 2701,
      "nobles": 2702,
      "beloved": 2703,
      "reward": 2704,
      "revo": 2705,
      "repair": 2706,
      "wives": 2707,
      "vex": 2708,
      "chief": 2709,
      "forbear": 2710,
      "weap": 2711,
      "utes": 2712,
      "dece": 2713,
      "looking": 2714,
      "withdraw": 2715,
      "hion": 2716,
      "hire": 2717,
      "ety": 2718,
      "ado": 2719,
      "kingly": 2720,
      "ament": 2721,
      "ify": 2722,
      "boats": 2723,
      "lets": 2724,
      "teeth": 2725,
      "protect": 2726,
      "perfect": 2727,
      "perhaps": 2728,
      "whole": 2729,
      "uments": 2730,
      "brook": 2731,
      "outward": 2732,
      "wot": 2733,
      "babe": 2734,
      "sometimes": 2735,
      "qua": 2736,
      "corrup": 2737,
      "disgrace": 2738,
      "discover": 2739,
      "offend": 2740,
      "serves": 2741,
      "express": 2742,
      "excell": 2743,
      "spare": 2744,
      "langu": 2745,
      "mony": 2746,
      "prey": 2747,
      "prevail": 2748,
      "names": 2749,
      "parts": 2750,
      "bearing": 2751,
      "garments": 2752,
      "parent": 2753,
      "chide": 2754,
      "brain": 2755,
      "begins": 2756,
      "crowns": 2757,
      "farther": 2758,
      "happiness": 2759,
      "curr": 2760,
      "curst": 2761,
      "follows": 2762,
      "followers": 2763,
      "quire": 2764,
      "access": 2765,
      "accuse": 2766,
      "turns": 2767,
      "burthen": 2768,
      "ruin": 2769,
      "fools": 2770,
      "hanging": 2771,
      "spoken": 2772,
      "humbly": 2773,
      "lamb": 2774,
      "darest": 2775,
      "instruct": 2776,
      "advise": 2777,
      "advantage": 2778,
      "guilt": 2779,
      "troop": 2780,
      "damned": 2781,
      "cries": 2782,
      "thrive": 2783,
      "dinner": 2784,
      "sighs": 2785,
      "dreadful": 2786,
      "hurt": 2787,
      "dares": 2788,
      "storm": 2789,
      "cunning": 2790,
      "punish": 2791,
      "throat": 2792,
      "devise": 2793,
      "conduct": 2794,
      "woful": 2795,
      "affairs": 2796,
      "benefit": 2797,
      "pisa": 2798,
      "rascal": 2799,
      "occasion": 2800,
      "christian": 2801,
      "thursday": 2802,
      "ax": 2803,
      "bare": 2804,
      "cate": 2805,
      "catch": 2806,
      "eag": 2807,
      "fy": 2808,
      "flight": 2809,
      "gg": 2810,
      "gy": 2811,
      "jury": 2812,
      "line": 2813,
      "pure": 2814,
      "pic": 2815,
      "rt": 2816,
      "san": 2817,
      "sway": 2818,
      "slow": 2819,
      "south": 2820,
      "ued": 2821,
      "van": 2822,
      "wond": 2823,
      "wreck": 2824,
      "wander": 2825,
      "thas": 2826,
      "infect": 2827,
      "ences": 2828,
      "habit": 2829,
      "beheld": 2830,
      "beyond": 2831,
      "legs": 2832,
      "rey": 2833,
      "real": 2834,
      "rema": 2835,
      "room": 2836,
      "forgive": 2837,
      "forsworn": 2838,
      "weight": 2839,
      "wept": 2840,
      "ldom": 2841,
      "usion": 2842,
      "ride": 2843,
      "rious": 2844,
      "dew": 2845,
      "ourish": 2846,
      "alter": 2847,
      "untime": 2848,
      "raven": 2849,
      "taking": 2850,
      "takes": 2851,
      "sured": 2852,
      "iffer": 2853,
      "conj": 2854,
      "shr": 2855,
      "goodness": 2856,
      "sici": 2857,
      "ouses": 2858,
      "protest": 2859,
      "peril": 2860,
      "perish": 2861,
      "perpet": 2862,
      "hereafter": 2863,
      "atest": 2864,
      "seest": 2865,
      "iest": 2866,
      "ages": 2867,
      "shouldst": 2868,
      "paper": 2869,
      "quench": 2870,
      "fathers": 2871,
      "disdain": 2872,
      "exile": 2873,
      "spend": 2874,
      "affect": 2875,
      "appoint": 2876,
      "fairly": 2877,
      "opinion": 2878,
      "tled": 2879,
      "fortunes": 2880,
      "prize": 2881,
      "gues": 2882,
      "emplo": 2883,
      "daughters": 2884,
      "calm": 2885,
      "giving": 2886,
      "horses": 2887,
      "fran": 2888,
      "denied": 2889,
      "confer": 2890,
      "compan": 2891,
      "balthas": 2892,
      "accus": 2893,
      "accord": 2894,
      "spirits": 2895,
      "deserves": 2896,
      "remembr": 2897,
      "commanded": 2898,
      "chair": 2899,
      "window": 2900,
      "groan": 2901,
      "forced": 2902,
      "wounded": 2903,
      "courtesy": 2904,
      "large": 2905,
      "wallow": 2906,
      "wedding": 2907,
      "penit": 2908,
      "praise": 2909,
      "credit": 2910,
      "palace": 2911,
      "piteous": 2912,
      "suspect": 2913,
      "pleasant": 2914,
      "innocent": 2915,
      "solemn": 2916,
      "several": 2917,
      "human": 2918,
      "threaten": 2919,
      "contrary": 2920,
      "miserable": 2921,
      "empty": 2922,
      "circum": 2923,
      "boatswain": 2924,
      "untimely": 2925,
      "employ": 2926,
      "balthasar": 2927,
      "agree": 2928,
      "bud": 2929,
      "dag": 2930,
      "east": 2931,
      "fle": 2932,
      "furn": 2933,
      "gate": 2934,
      "houses": 2935,
      "iled": 2936,
      "kedom": 2937,
      "luck": 2938,
      "mend": 2939,
      "naked": 2940,
      "omen": 2941,
      "pil": 2942,
      "ption": 2943,
      "rush": 2944,
      "song": 2945,
      "swallow": 2946,
      "twill": 2947,
      "inst": 2948,
      "intell": 2949,
      "isbury": 2950,
      "ating": 2951,
      "story": 2952,
      "tomb": 2953,
      "seas": 2954,
      "heed": 2955,
      "heel": 2956,
      "rede": 2957,
      "repe": 2958,
      "wits": 2959,
      "ital": 2960,
      "choler": 2961,
      "rose": 2962,
      "dep": 2963,
      "devo": 2964,
      "hid": 2965,
      "advers": 2966,
      "adventure": 2967,
      "advised": 2968,
      "unknown": 2969,
      "unnatural": 2970,
      "urge": 2971,
      "urance": 2972,
      "fee": 2973,
      "feed": 2974,
      "fame": 2975,
      "fail": 2976,
      "faces": 2977,
      "taught": 2978,
      "comest": 2979,
      "poster": 2980,
      "terror": 2981,
      "endure": 2982,
      "shun": 2983,
      "dukedom": 2984,
      "market": 2985,
      "wholes": 2986,
      "umble": 2987,
      "ants": 2988,
      "theirs": 2989,
      "folly": 2990,
      "bagot": 2991,
      "oked": 2992,
      "pace": 2993,
      "vide": 2994,
      "core": 2995,
      "disposition": 2996,
      "misery": 2997,
      "incre": 2998,
      "services": 2999,
      "hearted": 3000,
      "exam": 3001,
      "expect": 3002,
      "monstr": 3003,
      "dign": 3004,
      "bred": 3005,
      "appre": 3006,
      "iment": 3007,
      "called": 3008,
      "ursed": 3009,
      "lting": 3010,
      "intent": 3011,
      "fig": 3012,
      "fix": 3013,
      "assurance": 3014,
      "trick": 3015,
      "scene": 3016,
      "tremble": 3017,
      "kindly": 3018,
      "undertake": 3019,
      "french": 3020,
      "joys": 3021,
      "joyful": 3022,
      "camest": 3023,
      "cleomen": 3024,
      "curses": 3025,
      "needful": 3026,
      "dress": 3027,
      "bodies": 3028,
      "ferdin": 3029,
      "maiden": 3030,
      "build": 3031,
      "rule": 3032,
      "winds": 3033,
      "titus": 3034,
      "waters": 3035,
      "painted": 3036,
      "hunts": 3037,
      "grows": 3038,
      "profan": 3039,
      "instrument": 3040,
      "leads": 3041,
      "hopes": 3042,
      "fourth": 3043,
      "feeling": 3044,
      "drops": 3045,
      "salisbury": 3046,
      "shortly": 3047,
      "counterfeit": 3048,
      "torment": 3049,
      "griev": 3050,
      "reverend": 3051,
      "colours": 3052,
      "suspic": 3053,
      "passion": 3054,
      "willingly": 3055,
      "princess": 3056,
      "haply": 3057,
      "drums": 3058,
      "government": 3059,
      "rebell": 3060,
      "hatred": 3061,
      "fancy": 3062,
      "determin": 3063,
      "affli": 3064,
      "durst": 3065,
      "renowned": 3066,
      "sharp": 3067,
      "partic": 3068,
      "caliban": 3069,
      "apparel": 3070,
      "public": 3071,
      "study": 3072,
      "excellent": 3073,
      "remains": 3074,
      "remembrance": 3075,
      "wholesome": 3076,
      "cleomenes": 3077,
      "ferdinand": 3078,
      "suspicion": 3079,
      "ald": 3080,
      "aking": 3081,
      "alike": 3082,
      "bours": 3083,
      "cend": 3084,
      "cise": 3085,
      "ded": 3086,
      "fish": 3087,
      "gin": 3088,
      "knight": 3089,
      "lu": 3090,
      "loud": 3091,
      "mul": 3092,
      "net": 3093,
      "nought": 3094,
      "ointed": 3095,
      "phe": 3096,
      "pent": 3097,
      "purse": 3098,
      "sain": 3099,
      "swell": 3100,
      "sink": 3101,
      "sins": 3102,
      "slay": 3103,
      "scept": 3104,
      "slip": 3105,
      "tort": 3106,
      "uary": 3107,
      "vours": 3108,
      "thief": 3109,
      "err": 3110,
      "erous": 3111,
      "ints": 3112,
      "instant": 3113,
      "orous": 3114,
      "ortion": 3115,
      "enmity": 3116,
      "aries": 3117,
      "isle": 3118,
      "attempt": 3119,
      "stol": 3120,
      "stret": 3121,
      "store": 3122,
      "meant": 3123,
      "medi": 3124,
      "methought": 3125,
      "sequ": 3126,
      "season": 3127,
      "below": 3128,
      "behalf": 3129,
      "rece": 3130,
      "wil": 3131,
      "vest": 3132,
      "rogue": 3133,
      "forswear": 3134,
      "liar": 3135,
      "lion": 3136,
      "weather": 3137,
      "rian": 3138,
      "deck": 3139,
      "degree": 3140,
      "lot": 3141,
      "lower": 3142,
      "soever": 3143,
      "hill": 3144,
      "aded": 3145,
      "adver": 3146,
      "unhappy": 3147,
      "raise": 3148,
      "mage": 3149,
      "ambit": 3150,
      "shape": 3151,
      "tied": 3152,
      "tily": 3153,
      "willough": 3154,
      "idence": 3155,
      "faction": 3156,
      "manners": 3157,
      "contempt": 3158,
      "terms": 3159,
      "shine": 3160,
      "boar": 3161,
      "arts": 3162,
      "hol": 3163,
      "comfor": 3164,
      "commission": 3165,
      "venom": 3166,
      "saying": 3167,
      "ilt": 3168,
      "greed": 3169,
      "glorious": 3170,
      "likely": 3171,
      "special": 3172,
      "muster": 3173,
      "brings": 3174,
      "branch": 3175,
      "earnest": 3176,
      "disper": 3177,
      "gently": 3178,
      "served": 3179,
      "naples": 3180,
      "merit": 3181,
      "merri": 3182,
      "spite": 3183,
      "absent": 3184,
      "absol": 3185,
      "desires": 3186,
      "apt": 3187,
      "friendly": 3188,
      "armour": 3189,
      "resc": 3190,
      "privile": 3191,
      "puts": 3192,
      "longs": 3193,
      "clothe": 3194,
      "trade": 3195,
      "begun": 3196,
      "powers": 3197,
      "engthen": 3198,
      "slept": 3199,
      "happily": 3200,
      "finds": 3201,
      "boys": 3202,
      "jewel": 3203,
      "wait": 3204,
      "lasting": 3205,
      "ships": 3206,
      "accursed": 3207,
      "prosperous": 3208,
      "hateful": 3209,
      "mbling": 3210,
      "sends": 3211,
      "revenged": 3212,
      "wants": 3213,
      "freely": 3214,
      "hardly": 3215,
      "supposed": 3216,
      "dying": 3217,
      "uteous": 3218,
      "smiles": 3219,
      "profit": 3220,
      "surrey": 3221,
      "instruction": 3222,
      "resolution": 3223,
      "granted": 3224,
      "thrice": 3225,
      "dorcas": 3226,
      "pitch": 3227,
      "sky": 3228,
      "frame": 3229,
      "proportion": 3230,
      "respected": 3231,
      "pleasing": 3232,
      "passage": 3233,
      "waked": 3234,
      "provided": 3235,
      "obedient": 3236,
      "famous": 3237,
      "lusty": 3238,
      "continue": 3239,
      "odds": 3240,
      "volsce": 3241,
      "mourn": 3242,
      "amazed": 3243,
      "avoid": 3244,
      "stabb": 3245,
      "committed": 3246,
      "scope": 3247,
      "smooth": 3248,
      "acquaint": 3249,
      "knife": 3250,
      "whisper": 3251,
      "debt": 3252,
      "treacherous": 3253,
      "jealous": 3254,
      "fashion": 3255,
      "language": 3256,
      "sanct": 3257,
      "realm": 3258,
      "sicilia": 3259,
      "perpetual": 3260,
      "according": 3261,
      "dagger": 3262,
      "increase": 3263,
      "monstrous": 3264,
      "particular": 3265,
      "sceptre": 3266,
      "willoughby": 3267,
      "?--": 3268,
      "boun": 3269,
      "bill": 3270,
      "chast": 3271,
      "cket": 3272,
      "eve": 3273,
      "equal": 3274,
      "fun": 3275,
      "fice": 3276,
      "jack": 3277,
      "knot": 3278,
      "lent": 3279,
      "lour": 3280,
      "lark": 3281,
      "mp": 3282,
      "nal": 3283,
      "oak": 3284,
      "phi": 3285,
      "pound": 3286,
      "rend": 3287,
      "rous": 3288,
      "tin": 3289,
      "tun": 3290,
      "tush": 3291,
      "thread": 3292,
      "anointed": 3293,
      "inju": 3294,
      "infer": 3295,
      "ores": 3296,
      "island": 3297,
      "atic": 3298,
      "stamp": 3299,
      "nobl": 3300,
      "nobly": 3301,
      "bethink": 3302,
      "leep": 3303,
      "remove": 3304,
      "regard": 3305,
      "whit": 3306,
      "veins": 3307,
      "rosal": 3308,
      "assured": 3309,
      "asleep": 3310,
      "lift": 3311,
      "limb": 3312,
      "limit": 3313,
      "liament": 3314,
      "iron": 3315,
      "lock": 3316,
      "cost": 3317,
      "ades": 3318,
      "advice": 3319,
      "admit": 3320,
      "adrian": 3321,
      "unts": 3322,
      "unjust": 3323,
      "urged": 3324,
      "raised": 3325,
      "peer": 3326,
      "peers": 3327,
      "feather": 3328,
      "herald": 3329,
      "tap": 3330,
      "tame": 3331,
      "suck": 3332,
      "points": 3333,
      "shrew": 3334,
      "whip": 3335,
      "boots": 3336,
      "sirs": 3337,
      "perforce": 3338,
      "stery": 3339,
      "outs": 3340,
      "lovely": 3341,
      "greatest": 3342,
      "warlike": 3343,
      "aged": 3344,
      "ague": 3345,
      "bade": 3346,
      "fires": 3347,
      "shoulder": 3348,
      "plex": 3349,
      "paid": 3350,
      "corre": 3351,
      "disse": 3352,
      "hasty": 3353,
      "blown": 3354,
      "offended": 3355,
      "tells": 3356,
      "spit": 3357,
      "heap": 3358,
      "joint": 3359,
      "apparent": 3360,
      "fears": 3361,
      "fairer": 3362,
      "oppos": 3363,
      "estate": 3364,
      "partly": 3365,
      "parliament": 3366,
      "wrought": 3367,
      "achie": 3368,
      "braw": 3369,
      "gaoler": 3370,
      "trees": 3371,
      "contro": 3372,
      "afternoon": 3373,
      "sore": 3374,
      "virgin": 3375,
      "forthwith": 3376,
      "carried": 3377,
      "waking": 3378,
      "pomfret": 3379,
      "mistrust": 3380,
      "accused": 3381,
      "brid": 3382,
      "meeting": 3383,
      "ruth": 3384,
      "soundly": 3385,
      "craft": 3386,
      "hanged": 3387,
      "desert": 3388,
      "ireland": 3389,
      "vault": 3390,
      "groans": 3391,
      "single": 3392,
      "plainly": 3393,
      "suppose": 3394,
      "silent": 3395,
      "heirs": 3396,
      "instruments": 3397,
      "maintain": 3398,
      "aboard": 3399,
      "torch": 3400,
      "pieces": 3401,
      "vows": 3402,
      "waste": 3403,
      "sickness": 3404,
      "romans": 3405,
      "elder": 3406,
      "strew": 3407,
      "streets": 3408,
      "grieve": 3409,
      "daily": 3410,
      "reverence": 3411,
      "affections": 3412,
      "amongst": 3413,
      "grandam": 3414,
      "conceit": 3415,
      "extreme": 3416,
      "tarry": 3417,
      "thinking": 3418,
      "arrived": 3419,
      "imagine": 3420,
      "patricians": 3421,
      "gift": 3422,
      "retire": 3423,
      "neglect": 3424,
      "imprisonment": 3425,
      "journey": 3426,
      "pronounce": 3427,
      "aedile": 3428,
      "deceit": 3429,
      "protector": 3430,
      "current": 3431,
      "redeem": 3432,
      "huntsman": 3433,
      "grievous": 3434,
      "sanctuary": 3435,
      "rosaline": 3436,
      ";--": 3437,
      "aw": 3438,
      "ade": 3439,
      "ago": 3440,
      "aunt": 3441,
      "buck": 3442,
      "bility": 3443,
      "cou": 3444,
      "cere": 3445,
      "cti": 3446,
      "differ": 3447,
      "event": 3448,
      "gic": 3449,
      "iance": 3450,
      "ifest": 3451,
      "jured": 3452,
      "lun": 3453,
      "length": 3454,
      "oke": 3455,
      "pir": 3456,
      "ply": 3457,
      "pup": 3458,
      "path": 3459,
      "ron": 3460,
      "ray": 3461,
      "ress": 3462,
      "rare": 3463,
      "rust": 3464,
      "snow": 3465,
      "swo": 3466,
      "scape": 3467,
      "tall": 3468,
      "tree": 3469,
      "task": 3470,
      "twain": 3471,
      "var": 3472,
      "vau": 3473,
      "wan": 3474,
      "wink": 3475,
      "yoke": 3476,
      "zwater": 3477,
      "thie": 3478,
      "erce": 3479,
      "iny": 3480,
      "inking": 3481,
      "ense": 3482,
      "enant": 3483,
      "enna": 3484,
      "aring": 3485,
      "arti": 3486,
      "arise": 3487,
      "ises": 3488,
      "issu": 3489,
      "andal": 3490,
      "ative": 3491,
      "sting": 3492,
      "stout": 3493,
      "stable": 3494,
      "melan": 3495,
      "esar": 3496,
      "nod": 3497,
      "havi": 3498,
      "sets": 3499,
      "secure": 3500,
      "hest": 3501,
      "betr": 3502,
      "betimes": 3503,
      "recon": 3504,
      "remor": 3505,
      "rejo": 3506,
      "reput": 3507,
      "record": 3508,
      "vet": 3509,
      "rob": 3510,
      "forfeit": 3511,
      "assure": 3512,
      "eder": 3513,
      "liken": 3514,
      "utch": 3515,
      "utenant": 3516,
      "kest": 3517,
      "keley": 3518,
      "uses": 3519,
      "ripe": 3520,
      "decl": 3521,
      "deaf": 3522,
      "detest": 3523,
      "ghan": 3524,
      "hic": 3525,
      "unfold": 3526,
      "alliance": 3527,
      "dove": 3528,
      "dogs": 3529,
      "rail": 3530,
      "mach": 3531,
      "amity": 3532,
      "feet": 3533,
      "tier": 3534,
      "tired": 3535,
      "fact": 3536,
      "manifest": 3537,
      "hers": 3538,
      "lace": 3539,
      "posing": 3540,
      "concer": 3541,
      "morn": 3542,
      "mory": 3543,
      "caught": 3544,
      "caesar": 3545,
      "froward": 3546,
      "teous": 3547,
      "prodi": 3548,
      "ump": 3549,
      "complex": 3550,
      "gling": 3551,
      "food": 3552,
      "vessel": 3553,
      "graves": 3554,
      "civil": 3555,
      "vienna": 3556,
      "dismiss": 3557,
      "petite": 3558,
      "exer": 3559,
      "exchange": 3560,
      "exton": 3561,
      "spy": 3562,
      "spread": 3563,
      "heavi": 3564,
      "lesser": 3565,
      "ably": 3566,
      "abide": 3567,
      "dim": 3568,
      "struction": 3569,
      "berkeley": 3570,
      "counc": 3571,
      "lieutenant": 3572,
      "appetite": 3573,
      "newly": 3574,
      "impossible": 3575,
      "places": 3576,
      "parting": 3577,
      "parted": 3578,
      "prick": 3579,
      "wrink": 3580,
      "pping": 3581,
      "ullus": 3582,
      "rights": 3583,
      "tribut": 3584,
      "began": 3585,
      "scro": 3586,
      "scandal": 3587,
      "treasure": 3588,
      "grim": 3589,
      "helm": 3590,
      "slaves": 3591,
      "purchase": 3592,
      "charac": 3593,
      "younger": 3594,
      "powerful": 3595,
      "native": 3596,
      "carlis": 3597,
      "stead": 3598,
      "bore": 3599,
      "shield": 3600,
      "dowry": 3601,
      "accident": 3602,
      "tempest": 3603,
      "servants": 3604,
      "strive": 3605,
      "choly": 3606,
      "weeps": 3607,
      "fairest": 3608,
      "ruled": 3609,
      "beseem": 3610,
      "griefs": 3611,
      "falsehood": 3612,
      "faithful": 3613,
      "stomach": 3614,
      "sleeping": 3615,
      "sovereignty": 3616,
      "commons": 3617,
      "yielded": 3618,
      "fitzwater": 3619,
      "oaths": 3620,
      "consort": 3621,
      "suffi": 3622,
      "growing": 3623,
      "antic": 3624,
      "defence": 3625,
      "beholding": 3626,
      "pression": 3627,
      "wooing": 3628,
      "salt": 3629,
      "barren": 3630,
      "flood": 3631,
      "breathed": 3632,
      "books": 3633,
      "direction": 3634,
      "mouths": 3635,
      "stopp": 3636,
      "virtues": 3637,
      "weakness": 3638,
      "satisfy": 3639,
      "knaves": 3640,
      "gallant": 3641,
      "image": 3642,
      "bridegroom": 3643,
      "wakes": 3644,
      "beasts": 3645,
      "pierce": 3646,
      "occup": 3647,
      "cords": 3648,
      "milan": 3649,
      "supply": 3650,
      "entertainment": 3651,
      "persuade": 3652,
      "refuse": 3653,
      "substit": 3654,
      "stroke": 3655,
      "regal": 3656,
      "tyranny": 3657,
      "ballad": 3658,
      "conspirator": 3659,
      "smell": 3660,
      "revolt": 3661,
      "wondrous": 3662,
      "appointed": 3663,
      "conference": 3664,
      "penitent": 3665,
      "repeal": 3666,
      "devotion": 3667,
      "dignity": 3668,
      "rebellion": 3669,
      "determined": 3670,
      "stretch": 3671,
      "recei": 3672,
      "holp": 3673,
      "absolute": 3674,
      "tapster": 3675,
      "vaughan": 3676,
      "melancholy": 3677,
      "havior": 3678,
      "betray": 3679,
      "reconci": 3680,
      "carlisle": 3681,
      ".--": 3682,
      "bay": 3683,
      "bere": 3684,
      "bag": 3685,
      "bation": 3686,
      "cu": 3687,
      "cul": 3688,
      "coff": 3689,
      "chaste": 3690,
      "ders": 3691,
      "dash": 3692,
      "emi": 3693,
      "fil": 3694,
      "fits": 3695,
      "gun": 3696,
      "hated": 3697,
      "iam": 3698,
      "ience": 3699,
      "jes": 3700,
      "lon": 3701,
      "lur": 3702,
      "lves": 3703,
      "mish": 3704,
      "mpt": 3705,
      "nar": 3706,
      "nes": 3707,
      "nit": 3708,
      "ope": 3709,
      "pu": 3710,
      "pho": 3711,
      "pill": 3712,
      "rouse": 3713,
      "ratch": 3714,
      "sca": 3715,
      "sple": 3716,
      "scold": 3717,
      "swain": 3718,
      "swore": 3719,
      "score": 3720,
      "tard": 3721,
      "tles": 3722,
      "tullus": 3723,
      "ination": 3724,
      "infection": 3725,
      "thecar": 3726,
      "ency": 3727,
      "onso": 3728,
      "onation": 3729,
      "sty": 3730,
      "stumble": 3731,
      "tom": 3732,
      "toad": 3733,
      "toil": 3734,
      "mew": 3735,
      "memory": 3736,
      "hag": 3737,
      "sey": 3738,
      "sees": 3739,
      "sepul": 3740,
      "seldom": 3741,
      "heat": 3742,
      "bell": 3743,
      "beam": 3744,
      "begu": 3745,
      "league": 3746,
      "rear": 3747,
      "reap": 3748,
      "reach": 3749,
      "rewd": 3750,
      "removed": 3751,
      "wide": 3752,
      "wipe": 3753,
      "itch": 3754,
      "mystery": 3755,
      "cel": 3756,
      "asse": 3757,
      "edge": 3758,
      "lier": 3759,
      "weal": 3760,
      "notice": 3761,
      "dec": 3762,
      "dearest": 3763,
      "load": 3764,
      "lover": 3765,
      "soci": 3766,
      "coat": 3767,
      "goose": 3768,
      "alms": 3769,
      "alonso": 3770,
      "uncles": 3771,
      "lying": 3772,
      "male": 3773,
      "whate": 3774,
      "pee": 3775,
      "aming": 3776,
      "aments": 3777,
      "felt": 3778,
      "feign": 3779,
      "verily": 3780,
      "shapes": 3781,
      "tie": 3782,
      "tiest": 3783,
      "wills": 3784,
      "william": 3785,
      "fawn": 3786,
      "ckle": 3787,
      "manage": 3788,
      "tains": 3789,
      "tainted": 3790,
      "super": 3791,
      "suitor": 3792,
      "sullen": 3793,
      "ified": 3794,
      "pot": 3795,
      "conceive": 3796,
      "confirm": 3797,
      "trans": 3798,
      "shop": 3799,
      "shot": 3800,
      "shrewd": 3801,
      "capa": 3802,
      "mood": 3803,
      "moves": 3804,
      "sies": 3805,
      "thereby": 3806,
      "duce": 3807,
      "dukes": 3808,
      "marin": 3809,
      "marks": 3810,
      "seless": 3811,
      "proclam": 3812,
      "moreland": 3813,
      "comb": 3814,
      "bleeding": 3815,
      "blemish": 3816,
      "lovest": 3817,
      "knowing": 3818,
      "selfsame": 3819,
      "wolf": 3820,
      "warri": 3821,
      "whereto": 3822,
      "foreign": 3823,
      "babes": 3824,
      "somewhat": 3825,
      "pause": 3826,
      "bru": 3827,
      "brand": 3828,
      "brit": 3829,
      "cies": 3830,
      "vied": 3831,
      "disgu": 3832,
      "dissol": 3833,
      "disease": 3834,
      "dismal": 3835,
      "block": 3836,
      "deaths": 3837,
      "mischance": 3838,
      "tooth": 3839,
      "nap": 3840,
      "except": 3841,
      "monument": 3842,
      "heartily": 3843,
      "angel": 3844,
      "abused": 3845,
      "jot": 3846,
      "stranger": 3847,
      "bert": 3848,
      "desp": 3849,
      "descent": 3850,
      "grat": 3851,
      "gress": 3852,
      "sweeter": 3853,
      "greatness": 3854,
      "estim": 3855,
      "heavenly": 3856,
      "garland": 3857,
      "settled": 3858,
      "holding": 3859,
      "enses": 3860,
      "fierce": 3861,
      "redress": 3862,
      "flourish": 3863,
      "graced": 3864,
      "restra": 3865,
      "stays": 3866,
      "household": 3867,
      "gaze": 3868,
      "embra": 3869,
      "beget": 3870,
      "scratch": 3871,
      "trembling": 3872,
      "udge": 3873,
      "bank": 3874,
      "youngest": 3875,
      "dearly": 3876,
      "throng": 3877,
      "subtle": 3878,
      "laws": 3879,
      "bush": 3880,
      "compass": 3881,
      "minds": 3882,
      "steeds": 3883,
      "shire": 3884,
      "burst": 3885,
      "sorrows": 3886,
      "buz": 3887,
      "policy": 3888,
      "thankful": 3889,
      "crack": 3890,
      "craves": 3891,
      "stock": 3892,
      "hangs": 3893,
      "careless": 3894,
      "visage": 3895,
      "surely": 3896,
      "countrymen": 3897,
      "wanting": 3898,
      "yields": 3899,
      "beaut": 3900,
      "beauteous": 3901,
      "appeal": 3902,
      "mirth": 3903,
      "harsh": 3904,
      "sights": 3905,
      "trusty": 3906,
      "zeal": 3907,
      "boldly": 3908,
      "stronger": 3909,
      "suitors": 3910,
      "execute": 3911,
      "executed": 3912,
      "fourteen": 3913,
      "succeed": 3914,
      "burnt": 3915,
      "burning": 3916,
      "object": 3917,
      "damn": 3918,
      "wheel": 3919,
      "cheerly": 3920,
      "pitiful": 3921,
      "writing": 3922,
      "frail": 3923,
      "cherish": 3924,
      "westmoreland": 3925,
      "frowns": 3926,
      "actions": 3927,
      "triumphant": 3928,
      "conceal": 3929,
      "executioner": 3930,
      "innoc": 3931,
      "extremity": 3932,
      "mount": 3933,
      "neighbours": 3934,
      "ignorance": 3935,
      "stephen": 3936,
      "physi": 3937,
      "bigger": 3938,
      "shadows": 3939,
      "vouchsafe": 3940,
      "determine": 3941,
      "avoided": 3942,
      "infant": 3943,
      "strokes": 3944,
      "wager": 3945,
      "necessity": 3946,
      "modesty": 3947,
      "tyrann": 3948,
      "prophet": 3949,
      "eleven": 3950,
      "thirty": 3951,
      "inherit": 3952,
      "trespass": 3953,
      "hungry": 3954,
      "axe": 3955,
      "eagle": 3956,
      "shroud": 3957,
      "windows": 3958,
      "furnish": 3959,
      "italy": 3960,
      "adversaries": 3961,
      "appreh": 3962,
      "saints": 3963,
      "privilege": 3964,
      "clothes": 3965,
      "opposite": 3966,
      "thieves": 3967,
      "remorse": 3968,
      "exercise": 3969,
      "scroop": 3970,
      "emilia": 3971,
      "thecary": 3972,
      "sepulch": 3973,
      "bent": 3974,
      "bio": 3975,
      "bble": 3976,
      "bling": 3977,
      "cis": 3978,
      "dan": 3979,
      "dess": 3980,
      "dion": 3981,
      "date": 3982,
      "ea": 3983,
      "ev": 3984,
      "eem": 3985,
      "fed": 3986,
      "fts": 3987,
      "gour": 3988,
      "gid": 3989,
      "hare": 3990,
      "hatch": 3991,
      "hrew": 3992,
      "ient": 3993,
      "ible": 3994,
      "ict": 3995,
      "iety": 3996,
      "lance": 3997,
      "lengthen": 3998,
      "mat": 3999,
      "mould": 4000,
      "mong": 4001,
      "mates": 4002,
      "nut": 4003,
      "nup": 4004,
      "nice": 4005,
      "numb": 4006,
      "oh": 4007,
      "pin": 4008,
      "pate": 4009,
      "push": 4010,
      "rue": 4011,
      "sings": 4012,
      "smother": 4013,
      "sought": 4014,
      "skill": 4015,
      "senses": 4016,
      "ug": 4017,
      "uish": 4018,
      "vive": 4019,
      "ware": 4020,
      "thrown": 4021,
      "thumb": 4022,
      "thick": 4023,
      "insu": 4024,
      "inte": 4025,
      "insol": 4026,
      "inquire": 4027,
      "injury": 4028,
      "ensed": 4029,
      "arrest": 4030,
      "ony": 4031,
      "attor": 4032,
      "stu": 4033,
      "stic": 4034,
      "stale": 4035,
      "lling": 4036,
      "toy": 4037,
      "tomorrow": 4038,
      "melt": 4039,
      "essed": 4040,
      "escape": 4041,
      "nobility": 4042,
      "hall": 4043,
      "haught": 4044,
      "hazard": 4045,
      "secre": 4046,
      "search": 4047,
      "befall": 4048,
      "begot": 4049,
      "behavior": 4050,
      "leg": 4051,
      "requ": 4052,
      "repose": 4053,
      "recomp": 4054,
      "recre": 4055,
      "whores": 4056,
      "iter": 4057,
      "itude": 4058,
      "itiff": 4059,
      "chat": 4060,
      "chie": 4061,
      "chop": 4062,
      "charm": 4063,
      "roses": 4064,
      "forty": 4065,
      "lig": 4066,
      "lim": 4067,
      "lied": 4068,
      "liking": 4069,
      "livery": 4070,
      "likes": 4071,
      "wears": 4072,
      "noted": 4073,
      "using": 4074,
      "rible": 4075,
      "depose": 4076,
      "devour": 4077,
      "destruction": 4078,
      "lovers": 4079,
      "soil": 4080,
      "coll": 4081,
      "owl": 4082,
      "ourself": 4083,
      "hist": 4084,
      "butt": 4085,
      "und": 4086,
      "uns": 4087,
      "unate": 4088,
      "unken": 4089,
      "unworthy": 4090,
      "thern": 4091,
      "dozen": 4092,
      "raham": 4093,
      "rapier": 4094,
      "mast": 4095,
      "pear": 4096,
      "peach": 4097,
      "amus": 4098,
      "amiss": 4099,
      "tial": 4100,
      "idamus": 4101,
      "favours": 4102,
      "neat": 4103,
      "lap": 4104,
      "lain": 4105,
      "suits": 4106,
      "constable": 4107,
      "term": 4108,
      "shallow": 4109,
      "tress": 4110,
      "trench": 4111,
      "trunk": 4112,
      "endured": 4113,
      "share": 4114,
      "shines": 4115,
      "upright": 4116,
      "caitiff": 4117,
      "board": 4118,
      "boast": 4119,
      "goods": 4120,
      "ously": 4121,
      "mars": 4122,
      "mary": 4123,
      "proved": 4124,
      "process": 4125,
      "procure": 4126,
      "provide": 4127,
      "perni": 4128,
      "thaniel": 4129,
      "brown": 4130,
      "sav": 4131,
      "sacri": 4132,
      "worm": 4133,
      "iling": 4134,
      "grew": 4135,
      "whereon": 4136,
      "vocate": 4137,
      "grain": 4138,
      "goddess": 4139,
      "takest": 4140,
      "coronation": 4141,
      "discourse": 4142,
      "offices": 4143,
      "nable": 4144,
      "nathaniel": 4145,
      "merc": 4146,
      "merch": 4147,
      "sweat": 4148,
      "telling": 4149,
      "exped": 4150,
      "exceed": 4151,
      "looked": 4152,
      "split": 4153,
      "monster": 4154,
      "monarch": 4155,
      "abuse": 4156,
      "abraham": 4157,
      "dido": 4158,
      "descend": 4159,
      "gnant": 4160,
      "affright": 4161,
      "breed": 4162,
      "bread": 4163,
      "counted": 4164,
      "counsell": 4165,
      "immortal": 4166,
      "tshire": 4167,
      "fearing": 4168,
      "prefer": 4169,
      "sweetly": 4170,
      "esteem": 4171,
      "caps": 4172,
      "headed": 4173,
      "prime": 4174,
      "price": 4175,
      "fiend": 4176,
      "flu": 4177,
      "putting": 4178,
      "madness": 4179,
      "bliss": 4180,
      "courteous": 4181,
      "closed": 4182,
      "bidding": 4183,
      "game": 4184,
      "trim": 4185,
      "tricks": 4186,
      "mightst": 4187,
      "childish": 4188,
      "train": 4189,
      "travell": 4190,
      "beshrew": 4191,
      "scri": 4192,
      "scatter": 4193,
      "lightning": 4194,
      "henceforth": 4195,
      "transport": 4196,
      "cambio": 4197,
      "horn": 4198,
      "senseless": 4199,
      "fray": 4200,
      "bestow": 4201,
      "fardel": 4202,
      "purge": 4203,
      "bands": 4204,
      "backs": 4205,
      "drunken": 4206,
      "earthly": 4207,
      "confound": 4208,
      "waves": 4209,
      "compare": 4210,
      "balm": 4211,
      "falls": 4212,
      "falling": 4213,
      "minded": 4214,
      "sitting": 4215,
      "quired": 4216,
      "borrow": 4217,
      "falcon": 4218,
      "prosperity": 4219,
      "royalty": 4220,
      "chosen": 4221,
      "mbers": 4222,
      "cram": 4223,
      "mino": 4224,
      "minute": 4225,
      "careful": 4226,
      "vision": 4227,
      "meddle": 4228,
      "villains": 4229,
      "honey": 4230,
      "spoil": 4231,
      "challen": 4232,
      "igence": 4233,
      "commonwealth": 4234,
      "breathing": 4235,
      "lately": 4236,
      "sadness": 4237,
      "wisely": 4238,
      "sooner": 4239,
      "defy": 4240,
      "rank": 4241,
      "learned": 4242,
      "acts": 4243,
      "burns": 4244,
      "droop": 4245,
      "prettiest": 4246,
      "flattering": 4247,
      "covert": 4248,
      "praises": 4249,
      "officers": 4250,
      "joints": 4251,
      "blessing": 4252,
      "pitied": 4253,
      "archbishop": 4254,
      "archidamus": 4255,
      "written": 4256,
      "velvet": 4257,
      "liberal": 4258,
      "framed": 4259,
      "possession": 4260,
      "suddenly": 4261,
      "succession": 4262,
      "bitterly": 4263,
      "changing": 4264,
      "condemned": 4265,
      "gladly": 4266,
      "apothecary": 4267,
      "tutor": 4268,
      "licio": 4269,
      "grandsire": 4270,
      "churchyard": 4271,
      "midnight": 4272,
      "provoked": 4273,
      "mildly": 4274,
      "piercing": 4275,
      "musicians": 4276,
      "violence": 4277,
      "shook": 4278,
      "rebels": 4279,
      "steps": 4280,
      "physic": 4281,
      "gardener": 4282,
      "clamour": 4283,
      "bastards": 4284,
      "enforced": 4285,
      "affords": 4286,
      "guests": 4287,
      "winged": 4288,
      "months": 4289,
      "substance": 4290,
      "birds": 4291,
      "shrift": 4292,
      "bottom": 4293,
      "prevented": 4294,
      "censure": 4295,
      "merely": 4296,
      "statue": 4297,
      "weapon": 4298,
      "weapons": 4299,
      "corrupt": 4300,
      "troops": 4301,
      "conjure": 4302,
      "francis": 4303,
      "companion": 4304,
      "threatening": 4305,
      "pilgri": 4306,
      "intelligence": 4307,
      "heels": 4308,
      "depend": 4309,
      "figure": 4310,
      "afflict": 4311,
      "multit": 4312,
      "torture": 4313,
      "wiltshire": 4314,
      "ambitious": 4315,
      "dispersed": 4316,
      "rescue": 4317,
      "limbs": 4318,
      "ruthless": 4319,
      "rejoice": 4320,
      "reputation": 4321,
      "likeness": 4322,
      "character": 4323,
      "jesu": 4324,
      "spleen": 4325,
      "peevish": 4326,
      "capable": 4327,
      "proclamation": 4328,
      "warriors": 4329,
      "despised": 4330,
      "sepulchre": 4331,
      "giddy": 4332,
      "attorney": 4333,
      "pernicious": 4334,
      "challenge": 4335,
      "amain": 4336,
      "acles": 4337,
      "apace": 4338,
      "bi": 4339,
      "bate": 4340,
      "blast": 4341,
      "card": 4342,
      "cats": 4343,
      "cheap": 4344,
      "dst": 4345,
      "dine": 4346,
      "dried": 4347,
      "een": 4348,
      "eight": 4349,
      "egi": 4350,
      "fanta": 4351,
      "gam": 4352,
      "gers": 4353,
      "gap": 4354,
      "ggest": 4355,
      "ians": 4356,
      "ired": 4357,
      "iliar": 4358,
      "lous": 4359,
      "mate": 4360,
      "mers": 4361,
      "mask": 4362,
      "non": 4363,
      "nim": 4364,
      "pour": 4365,
      "rhe": 4366,
      "rum": 4367,
      "rance": 4368,
      "sl": 4369,
      "sess": 4370,
      "slight": 4371,
      "sides": 4372,
      "twould": 4373,
      "trow": 4374,
      "vul": 4375,
      "vass": 4376,
      "vast": 4377,
      "wks": 4378,
      "zounds": 4379,
      "oured": 4380,
      "angling": 4381,
      "thest": 4382,
      "enrich": 4383,
      "arg": 4384,
      "array": 4385,
      "isted": 4386,
      "isting": 4387,
      "oned": 4388,
      "atta": 4389,
      "start": 4390,
      "stance": 4391,
      "stick": 4392,
      "metal": 4393,
      "members": 4394,
      "hallow": 4395,
      "hamed": 4396,
      "severe": 4397,
      "seated": 4398,
      "height": 4399,
      "belong": 4400,
      "beef": 4401,
      "betide": 4402,
      "leap": 4403,
      "lewd": 4404,
      "recover": 4405,
      "revel": 4406,
      "revive": 4407,
      "itation": 4408,
      "chol": 4409,
      "roof": 4410,
      "rope": 4411,
      "robes": 4412,
      "robb": 4413,
      "forgiven": 4414,
      "aspect": 4415,
      "ashamed": 4416,
      "lick": 4417,
      "lions": 4418,
      "week": 4419,
      "erest": 4420,
      "kets": 4421,
      "deceive": 4422,
      "decre": 4423,
      "loso": 4424,
      "loathe": 4425,
      "soms": 4426,
      "entrance": 4427,
      "cot": 4428,
      "cook": 4429,
      "covent": 4430,
      "cozen": 4431,
      "gos": 4432,
      "hions": 4433,
      "owes": 4434,
      "also": 4435,
      "adul": 4436,
      "admir": 4437,
      "advocate": 4438,
      "ung": 4439,
      "unkindness": 4440,
      "allay": 4441,
      "allegi": 4442,
      "ards": 4443,
      "rag": 4444,
      "raid": 4445,
      "amends": 4446,
      "amorous": 4447,
      "fever": 4448,
      "verty": 4449,
      "shade": 4450,
      "supre": 4451,
      "suggest": 4452,
      "poverty": 4453,
      "conquest": 4454,
      "consequ": 4455,
      "shout": 4456,
      "shown": 4457,
      "shru": 4458,
      "shining": 4459,
      "cab": 4460,
      "bowel": 4461,
      "hoar": 4462,
      "moan": 4463,
      "ainted": 4464,
      "frozen": 4465,
      "sith": 4466,
      "silly": 4467,
      "marvel": 4468,
      "marvell": 4469,
      "proph": 4470,
      "pers": 4471,
      "pery": 4472,
      "perchance": 4473,
      "permit": 4474,
      "perience": 4475,
      "herein": 4476,
      "compla": 4477,
      "venice": 4478,
      "ately": 4479,
      "outrage": 4480,
      "sack": 4481,
      "saved": 4482,
      "seeking": 4483,
      "lovel": 4484,
      "cture": 4485,
      "riches": 4486,
      "warn": 4487,
      "likewise": 4488,
      "baby": 4489,
      "plebe": 4490,
      "bris": 4491,
      "brat": 4492,
      "cially": 4493,
      "discontent": 4494,
      "discharge": 4495,
      "discontented": 4496,
      "blot": 4497,
      "misfortune": 4498,
      "petty": 4499,
      "incensed": 4500,
      "offences": 4501,
      "swears": 4502,
      "experience": 4503,
      "monious": 4504,
      "cler": 4505,
      "dia": 4506,
      "dian": 4507,
      "strang": 4508,
      "landed": 4509,
      "grity": 4510,
      "afraid": 4511,
      "accom": 4512,
      "lief": 4513,
      "imper": 4514,
      "immedi": 4515,
      "leaving": 4516,
      "nights": 4517,
      "isement": 4518,
      "partner": 4519,
      "livest": 4520,
      "fortunate": 4521,
      "resem": 4522,
      "intents": 4523,
      "intended": 4524,
      "parents": 4525,
      "parties": 4526,
      "flat": 4527,
      "flay": 4528,
      "pute": 4529,
      "blue": 4530,
      "downright": 4531,
      "courtier": 4532,
      "worldly": 4533,
      "presume": 4534,
      "brains": 4535,
      "cheque": 4536,
      "beside": 4537,
      "welsh": 4538,
      "couldst": 4539,
      "omit": 4540,
      "helps": 4541,
      "dearer": 4542,
      "meantime": 4543,
      "purple": 4544,
      "pursue": 4545,
      "charges": 4546,
      "clean": 4547,
      "busy": 4548,
      "drew": 4549,
      "hopeful": 4550,
      "drinking": 4551,
      "carries": 4552,
      "bene": 4553,
      "compas": 4554,
      "compli": 4555,
      "compound": 4556,
      "pomp": 4557,
      "homely": 4558,
      "steed": 4559,
      "steep": 4560,
      "dragon": 4561,
      "dower": 4562,
      "sunday": 4563,
      "temples": 4564,
      "turned": 4565,
      "reply": 4566,
      "burden": 4567,
      "burgun": 4568,
      "signal": 4569,
      "signify": 4570,
      "contents": 4571,
      "pick": 4572,
      "sounds": 4573,
      "sounded": 4574,
      "falsely": 4575,
      "relent": 4576,
      "believed": 4577,
      "straw": 4578,
      "commands": 4579,
      "spot": 4580,
      "revenges": 4581,
      "readiness": 4582,
      "doubtful": 4583,
      "kisses": 4584,
      "winters": 4585,
      "draws": 4586,
      "lambs": 4587,
      "pedlar": 4588,
      "beats": 4589,
      "beaten": 4590,
      "folks": 4591,
      "crying": 4592,
      "harp": 4593,
      "runs": 4594,
      "touching": 4595,
      "boldness": 4596,
      "ransom": 4597,
      "devilish": 4598,
      "entreaties": 4599,
      "wednes": 4600,
      "crush": 4601,
      "crutch": 4602,
      "youthful": 4603,
      "safely": 4604,
      "testi": 4605,
      "divor": 4606,
      "tempted": 4607,
      "cloudy": 4608,
      "eldest": 4609,
      "springs": 4610,
      "stream": 4611,
      "stops": 4612,
      "grieves": 4613,
      "grieved": 4614,
      "skull": 4615,
      "interchange": 4616,
      "satisfaction": 4617,
      "summon": 4618,
      "darkness": 4619,
      "rupt": 4620,
      "towns": 4621,
      "dame": 4622,
      "hurl": 4623,
      "beggars": 4624,
      "lamentable": 4625,
      "eaten": 4626,
      "cowardly": 4627,
      "approbation": 4628,
      "dared": 4629,
      "fondly": 4630,
      "kinsmen": 4631,
      "waken": 4632,
      "storms": 4633,
      "departure": 4634,
      "middle": 4635,
      "ghostly": 4636,
      "mildness": 4637,
      "christop": 4638,
      "shoes": 4639,
      "greeting": 4640,
      "treasons": 4641,
      "mutinous": 4642,
      "spurgh": 4643,
      "usurping": 4644,
      "troubled": 4645,
      "evils": 4646,
      "fingers": 4647,
      "familiar": 4648,
      "seized": 4649,
      "reckon": 4650,
      "sentenced": 4651,
      "lists": 4652,
      "umbling": 4653,
      "considered": 4654,
      "lodged": 4655,
      "scot": 4656,
      "conclude": 4657,
      "inclined": 4658,
      "ministers": 4659,
      "bootless": 4660,
      "acquainted": 4661,
      "gifts": 4662,
      "retired": 4663,
      "conqueror": 4664,
      "freedom": 4665,
      "keys": 4666,
      "hostess": 4667,
      "designs": 4668,
      "preserve": 4669,
      "vanity": 4670,
      "wandering": 4671,
      "infected": 4672,
      "ravenspurgh": 4673,
      "frank": 4674,
      "accusation": 4675,
      "circumstance": 4676,
      "example": 4677,
      "profane": 4678,
      "errand": 4679,
      "instantly": 4680,
      "stolen": 4681,
      "advertis": 4682,
      "comfortable": 4683,
      "function": 4684,
      "philoso": 4685,
      "injurious": 4686,
      "nobleness": 4687,
      "correction": 4688,
      "bridal": 4689,
      "couple": 4690,
      "varlet": 4691,
      "complexion": 4692,
      "heavier": 4693,
      "sufficient": 4694,
      "occupation": 4695,
      "substitute": 4696,
      "reconcile": 4697,
      "bereft": 4698,
      "narrow": 4699,
      "beams": 4700,
      "feigned": 4701,
      "estimation": 4702,
      "tyrannous": 4703,
      "nuptial": 4704,
      "integrity": 4705,
      "recompense": 4706,
      "savage": 4707,
      "merchant": 4708,
      "minola": 4709,
      "pilgrimage": 4710,
      "coventry": 4711,
      "adulter": 4712,
      "allegiance": 4713,
      "bowels": 4714,
      "complaint": 4715,
      "burgundy": 4716,
      "wednesday": 4717,
      "christopher": 4718,
      "philosophy": 4719,
      "ape": 4720,
      "afe": 4721,
      "afore": 4722,
      "agreed": 4723,
      "awaked": 4724,
      "bul": 4725,
      "blan": 4726,
      "cand": 4727,
      "cta": 4728,
      "crest": 4729,
      "cull": 4730,
      "ds": 4731,
      "fu": 4732,
      "fin": 4733,
      "foun": 4734,
      "fume": 4735,
      "gis": 4736,
      "gas": 4737,
      "gal": 4738,
      "gust": 4739,
      "gloves": 4740,
      "gging": 4741,
      "hound": 4742,
      "hounds": 4743,
      "ith": 4744,
      "icles": 4745,
      "jer": 4746,
      "jup": 4747,
      "kent": 4748,
      "kites": 4749,
      "knit": 4750,
      "lin": 4751,
      "lor": 4752,
      "len": 4753,
      "lute": 4754,
      "ming": 4755,
      "mum": 4756,
      "mber": 4757,
      "mouse": 4758,
      "mbroke": 4759,
      "mbles": 4760,
      "naught": 4761,
      "nourish": 4762,
      "pence": 4763,
      "pud": 4764,
      "patter": 4765,
      "pular": 4766,
      "pinch": 4767,
      "rist": 4768,
      "scap": 4769,
      "slu": 4770,
      "tany": 4771,
      "troy": 4772,
      "ually": 4773,
      "wre": 4774,
      "wart": 4775,
      "xes": 4776,
      "yare": 4777,
      "zy": 4778,
      "zing": 4779,
      "zel": 4780,
      "thage": 4781,
      "threw": 4782,
      "oudest": 4783,
      "error": 4784,
      "inu": 4785,
      "inward": 4786,
      "inies": 4787,
      "invent": 4788,
      "injustice": 4789,
      "theme": 4790,
      "ored": 4791,
      "ories": 4792,
      "orator": 4793,
      "ensu": 4794,
      "envir": 4795,
      "arning": 4796,
      "armed": 4797,
      "ising": 4798,
      "ato": 4799,
      "stin": 4800,
      "stag": 4801,
      "stark": 4802,
      "stiff": 4803,
      "lled": 4804,
      "toe": 4805,
      "tops": 4806,
      "toads": 4807,
      "meth": 4808,
      "meed": 4809,
      "meal": 4810,
      "haunt": 4811,
      "ingrate": 4812,
      "separ": 4813,
      "heth": 4814,
      "heal": 4815,
      "heigh": 4816,
      "heinous": 4817,
      "bel": 4818,
      "became": 4819,
      "leful": 4820,
      "level": 4821,
      "learning": 4822,
      "rein": 4823,
      "repri": 4824,
      "rebu": 4825,
      "redem": 4826,
      "requit": 4827,
      "require": 4828,
      "wield": 4829,
      "veil": 4830,
      "itable": 4831,
      "chers": 4832,
      "chances": 4833,
      "christ": 4834,
      "rode": 4835,
      "forsake": 4836,
      "forsooth": 4837,
      "cep": 4838,
      "cels": 4839,
      "asking": 4840,
      "asion": 4841,
      "asant": 4842,
      "lihood": 4843,
      "wet": 4844,
      "utmost": 4845,
      "usual": 4846,
      "rice": 4847,
      "deer": 4848,
      "lots": 4849,
      "locks": 4850,
      "loose": 4851,
      "soo": 4852,
      "sow": 4853,
      "cob": 4854,
      "coast": 4855,
      "alban": 4856,
      "aloud": 4857,
      "adop": 4858,
      "butter": 4859,
      "undo": 4860,
      "unlook": 4861,
      "unru": 4862,
      "unseen": 4863,
      "uncertain": 4864,
      "unwilling": 4865,
      "unluck": 4866,
      "allies": 4867,
      "ram": 4868,
      "race": 4869,
      "rack": 4870,
      "rails": 4871,
      "rages": 4872,
      "maker": 4873,
      "magis": 4874,
      "whatsoever": 4875,
      "peian": 4876,
      "pembroke": 4877,
      "feat": 4878,
      "shapen": 4879,
      "onest": 4880,
      "tire": 4881,
      "tiger": 4882,
      "iders": 4883,
      "nel": 4884,
      "nept": 4885,
      "manly": 4886,
      "manhood": 4887,
      "tack": 4888,
      "taunts": 4889,
      "prate": 4890,
      "prise": 4891,
      "prating": 4892,
      "proudest": 4893,
      "sugar": 4894,
      "poses": 4895,
      "popular": 4896,
      "conge": 4897,
      "conven": 4898,
      "terr": 4899,
      "moral": 4900,
      "upper": 4901,
      "whipp": 4902,
      "whipt": 4903,
      "causes": 4904,
      "boister": 4905,
      "bosoms": 4906,
      "hole": 4907,
      "moe": 4908,
      "moment": 4909,
      "model": 4910,
      "moiety": 4911,
      "frost": 4912,
      "sheathe": 4913,
      "shearing": 4914,
      "teth": 4915,
      "tewks": 4916,
      "sive": 4917,
      "thereto": 4918,
      "dumb": 4919,
      "marqu": 4920,
      "perfection": 4921,
      "perjury": 4922,
      "perjured": 4923,
      "combat": 4924,
      "ulate": 4925,
      "broach": 4926,
      "canop": 4927,
      "canker": 4928,
      "sacra": 4929,
      "seeks": 4930,
      "worser": 4931,
      "worms": 4932,
      "ctor": 4933,
      "ctly": 4934,
      "grees": 4935,
      "wolves": 4936,
      "ived": 4937,
      "wares": 4938,
      "likelihood": 4939,
      "spect": 4940,
      "speaking": 4941,
      "specta": 4942,
      "forehead": 4943,
      "baw": 4944,
      "bald": 4945,
      "northern": 4946,
      "shoulders": 4947,
      "mustard": 4948,
      "graces": 4949,
      "audi": 4950,
      "vial": 4951,
      "corax": 4952,
      "disting": 4953,
      "discre": 4954,
      "disorder": 4955,
      "displeasure": 4956,
      "distur": 4957,
      "distress": 4958,
      "mischief": 4959,
      "serious": 4960,
      "serpent": 4961,
      "nail": 4962,
      "nails": 4963,
      "exact": 4964,
      "spar": 4965,
      "spark": 4966,
      "spider": 4967,
      "mont": 4968,
      "angels": 4969,
      "ables": 4970,
      "digest": 4971,
      "divide": 4972,
      "brotherhood": 4973,
      "breeding": 4974,
      "breaking": 4975,
      "otherwise": 4976,
      "eyed": 4977,
      "apart": 4978,
      "madest": 4979,
      "impeach": 4980,
      "prays": 4981,
      "plate": 4982,
      "nighting": 4983,
      "nightly": 4984,
      "linger": 4985,
      "oppression": 4986,
      "named": 4987,
      "sweetest": 4988,
      "nobleman": 4989,
      "setting": 4990,
      "resist": 4991,
      "intends": 4992,
      "privy": 4993,
      "fiance": 4994,
      "wring": 4995,
      "flint": 4996,
      "thood": 4997,
      "rests": 4998,
      "evermore": 4999,
      "everlasting": 5000,
      "blance": 5001,
      "blister": 5002,
      "downfall": 5003,
      "courts": 5004,
      "courses": 5005,
      "cloak": 5006,
      "gued": 5007,
      "mothers": 5008,
      "braved": 5009,
      "chest": 5010,
      "gather": 5011,
      "gaol": 5012,
      "tried": 5013,
      "trifles": 5014,
      "embas": 5015,
      "begg": 5016,
      "diest": 5017,
      "insinu": 5018,
      "showing": 5019,
      "scur": 5020,
      "friendship": 5021,
      "lights": 5022,
      "talking": 5023,
      "calamity": 5024,
      "murders": 5025,
      "commends": 5026,
      "ivant": 5027,
      "dearth": 5028,
      "fring": 5029,
      "front": 5030,
      "franch": 5031,
      "frantic": 5032,
      "keeping": 5033,
      "murdered": 5034,
      "murderous": 5035,
      "meaner": 5036,
      "pursuit": 5037,
      "afterward": 5038,
      "capulets": 5039,
      "subdu": 5040,
      "happier": 5041,
      "carthage": 5042,
      "yester": 5043,
      "confusion": 5044,
      "confidence": 5045,
      "confeder": 5046,
      "following": 5047,
      "wave": 5048,
      "waits": 5049,
      "patron": 5050,
      "steward": 5051,
      "dram": 5052,
      "nigh": 5053,
      "cousins": 5054,
      "killing": 5055,
      "accustom": 5056,
      "temple": 5057,
      "tempor": 5058,
      "bric": 5059,
      "strife": 5060,
      "strict": 5061,
      "wronged": 5062,
      "royalties": 5063,
      "chose": 5064,
      "plays": 5065,
      "thousands": 5066,
      "pilot": 5067,
      "herds": 5068,
      "lowly": 5069,
      "crab": 5070,
      "cracking": 5071,
      "minutes": 5072,
      "stocks": 5073,
      "montagues": 5074,
      "hangman": 5075,
      "matters": 5076,
      "bowl": 5077,
      "fights": 5078,
      "reasonable": 5079,
      "dreamt": 5080,
      "blade": 5081,
      "blaze": 5082,
      "revenue": 5083,
      "ignoble": 5084,
      "humility": 5085,
      "yielding": 5086,
      "fouler": 5087,
      "appears": 5088,
      "watery": 5089,
      "breaks": 5090,
      "singular": 5091,
      "delicate": 5092,
      "beating": 5093,
      "harbour": 5094,
      "harmony": 5095,
      "harvest": 5096,
      "tenderness": 5097,
      "hunger": 5098,
      "destiny": 5099,
      "creep": 5100,
      "crept": 5101,
      "sadly": 5102,
      "saddle": 5103,
      "suffice": 5104,
      "reported": 5105,
      "silk": 5106,
      "persons": 5107,
      "battles": 5108,
      "airy": 5109,
      "growth": 5110,
      "smiling": 5111,
      "antium": 5112,
      "confessor": 5113,
      "confession": 5114,
      "surfeit": 5115,
      "devils": 5116,
      "entreaty": 5117,
      "quarter": 5118,
      "leaden": 5119,
      "wedded": 5120,
      "attended": 5121,
      "ashes": 5122,
      "speedy": 5123,
      "revengeful": 5124,
      "acknow": 5125,
      "torn": 5126,
      "safeguard": 5127,
      "flatterers": 5128,
      "damnable": 5129,
      "lads": 5130,
      "wonderful": 5131,
      "flock": 5132,
      "walter": 5133,
      "tribune": 5134,
      "knocks": 5135,
      "softly": 5136,
      "divided": 5137,
      "suffering": 5138,
      "sufferance": 5139,
      "dined": 5140,
      "eternal": 5141,
      "certainly": 5142,
      "champ": 5143,
      "proceedings": 5144,
      "breasts": 5145,
      "rising": 5146,
      "feasts": 5147,
      "hinder": 5148,
      "troubl": 5149,
      "visitation": 5150,
      "cupid": 5151,
      "lamentation": 5152,
      "smallest": 5153,
      "scorns": 5154,
      "easily": 5155,
      "sixteen": 5156,
      "abhorr": 5157,
      "approved": 5158,
      "grandfather": 5159,
      "midst": 5160,
      "midwife": 5161,
      "wenches": 5162,
      "extremes": 5163,
      "slanderous": 5164,
      "mountain": 5165,
      "sycorax": 5166,
      "anchor": 5167,
      "reigns": 5168,
      "spurs": 5169,
      "pestil": 5170,
      "tarpeian": 5171,
      "glasses": 5172,
      "plants": 5173,
      "milk": 5174,
      "starve": 5175,
      "support": 5176,
      "blushing": 5177,
      "volscian": 5178,
      "volscians": 5179,
      "bending": 5180,
      "lodge": 5181,
      "lodging": 5182,
      "roaring": 5183,
      "loyalty": 5184,
      "conclud": 5185,
      "conclusion": 5186,
      "stooping": 5187,
      "roundly": 5188,
      "patrician": 5189,
      "prophecy": 5190,
      "aims": 5191,
      "drift": 5192,
      "loathsome": 5193,
      "advanced": 5194,
      "crows": 5195,
      "ornaments": 5196,
      "pursued": 5197,
      "pursuivant": 5198,
      "fifth": 5199,
      "fifteen": 5200,
      "slily": 5201,
      "statutes": 5202,
      "quali": 5203,
      "quake": 5204,
      "corruption": 5205,
      "disgraced": 5206,
      "guiltless": 5207,
      "eager": 5208,
      "shrink": 5209,
      "fleet": 5210,
      "rushes": 5211,
      "affliction": 5212,
      "swelling": 5213,
      "medic": 5214,
      "adverse": 5215,
      "branches": 5216,
      "whispering": 5217,
      "bounty": 5218,
      "render": 5219,
      "tunis": 5220,
      "dissemble": 5221,
      "achieve": 5222,
      "buckle": 5223,
      "ceremonious": 5224,
      "ctious": 5225,
      "lunatic": 5226,
      "piring": 5227,
      "concerns": 5228,
      "councils": 5229,
      "wrinkled": 5230,
      "tribute": 5231,
      "beseeming": 5232,
      "consorted": 5233,
      "puiss": 5234,
      "tardy": 5235,
      "decay": 5236,
      "moody": 5237,
      "mariners": 5238,
      "brittany": 5239,
      "innocence": 5240,
      "apprehend": 5241,
      "dancing": 5242,
      "numbers": 5243,
      "insulting": 5244,
      "secrets": 5245,
      "requires": 5246,
      "recreant": 5247,
      "whoreson": 5248,
      "chiefest": 5249,
      "ligence": 5250,
      "history": 5251,
      "pearl": 5252,
      "sacrifice": 5253,
      "merciful": 5254,
      "counsellor": 5255,
      "multitude": 5256,
      "fantastic": 5257,
      "rumour": 5258,
      "vulgar": 5259,
      "forgiveness": 5260,
      "loathed": 5261,
      "gossi": 5262,
      "consequence": 5263,
      "cabin": 5264,
      "marvellous": 5265,
      "prophesy": 5266,
      "plebeians": 5267,
      "accompl": 5268,
      "compassion": 5269,
      "scotland": 5270,
      "afeard": 5271,
      "jupiter": 5272,
      "lenity": 5273,
      "pattern": 5274,
      "redemption": 5275,
      "unruly": 5276,
      "magistr": 5277,
      "neptune": 5278,
      "boisterous": 5279,
      "tewksbury": 5280,
      "sacrament": 5281,
      "disturb": 5282,
      "ais": 5283,
      "awe": 5284,
      "aves": 5285,
      "aliz": 5286,
      "afoot": 5287,
      "avouch": 5288,
      "bone": 5289,
      "bout": 5290,
      "bind": 5291,
      "bought": 5292,
      "cust": 5293,
      "cuck": 5294,
      "dun": 5295,
      "dge": 5296,
      "dart": 5297,
      "dang": 5298,
      "ell": 5299,
      "elo": 5300,
      "ege": 5301,
      "eous": 5302,
      "ect": 5303,
      "equ": 5304,
      "ebus": 5305,
      "elect": 5306,
      "ebb": 5307,
      "fli": 5308,
      "fate": 5309,
      "fty": 5310,
      "farm": 5311,
      "gay": 5312,
      "gul": 5313,
      "gnor": 5314,
      "gative": 5315,
      "ime": 5316,
      "ives": 5317,
      "iving": 5318,
      "jun": 5319,
      "ky": 5320,
      "kens": 5321,
      "lou": 5322,
      "lat": 5323,
      "las": 5324,
      "lter": 5325,
      "link": 5326,
      "liness": 5327,
      "lends": 5328,
      "leness": 5329,
      "mand": 5330,
      "mod": 5331,
      "mart": 5332,
      "mph": 5333,
      "muff": 5334,
      "nie": 5335,
      "nic": 5336,
      "os": 5337,
      "ogative": 5338,
      "py": 5339,
      "pan": 5340,
      "pha": 5341,
      "pere": 5342,
      "pine": 5343,
      "pull": 5344,
      "plight": 5345,
      "paint": 5346,
      "puff": 5347,
      "pounds": 5348,
      "rats": 5349,
      "rites": 5350,
      "sine": 5351,
      "squ": 5352,
      "smi": 5353,
      "scour": 5354,
      "sunder": 5355,
      "schol": 5356,
      "tou": 5357,
      "tum": 5358,
      "tink": 5359,
      "tance": 5360,
      "tents": 5361,
      "tumble": 5362,
      "uge": 5363,
      "ubs": 5364,
      "umes": 5365,
      "vine": 5366,
      "vity": 5367,
      "viness": 5368,
      "whelm": 5369,
      "zz": 5370,
      "zon": 5371,
      "zes": 5372,
      "thre": 5373,
      "thres": 5374,
      "thwa": 5375,
      "ousies": 5376,
      "erun": 5377,
      "erity": 5378,
      "erogative": 5379,
      "inv": 5380,
      "inve": 5381,
      "inal": 5382,
      "indu": 5383,
      "inconstant": 5384,
      "inhabit": 5385,
      "instead": 5386,
      "incapable": 5387,
      "infring": 5388,
      "thed": 5389,
      "orph": 5390,
      "ening": 5391,
      "ened": 5392,
      "encourage": 5393,
      "enfranch": 5394,
      "argo": 5395,
      "arum": 5396,
      "arison": 5397,
      "arbit": 5398,
      "isome": 5399,
      "attain": 5400,
      "attent": 5401,
      "sti": 5402,
      "stall": 5403,
      "stem": 5404,
      "strel": 5405,
      "stub": 5406,
      "staff": 5407,
      "llies": 5408,
      "token": 5409,
      "meas": 5410,
      "mete": 5411,
      "mellow": 5412,
      "melting": 5413,
      "espe": 5414,
      "noses": 5415,
      "halt": 5416,
      "hazel": 5417,
      "sex": 5418,
      "seed": 5419,
      "sedu": 5420,
      "hector": 5421,
      "beet": 5422,
      "befal": 5423,
      "beads": 5424,
      "befits": 5425,
      "beware": 5426,
      "levy": 5427,
      "levied": 5428,
      "repro": 5429,
      "relie": 5430,
      "relea": 5431,
      "revol": 5432,
      "repossess": 5433,
      "reproof": 5434,
      "requite": 5435,
      "repetition": 5436,
      "required": 5437,
      "whore": 5438,
      "chery": 5439,
      "rocks": 5440,
      "forces": 5441,
      "formed": 5442,
      "fornic": 5443,
      "forerun": 5444,
      "asy": 5445,
      "assa": 5446,
      "ashor": 5447,
      "ascend": 5448,
      "aspiring": 5449,
      "liqu": 5450,
      "ligent": 5451,
      "licit": 5452,
      "weed": 5453,
      "western": 5454,
      "notes": 5455,
      "notwith": 5456,
      "notorious": 5457,
      "rib": 5458,
      "rion": 5459,
      "rial": 5460,
      "rival": 5461,
      "ripen": 5462,
      "device": 5463,
      "deform": 5464,
      "deeper": 5465,
      "debase": 5466,
      "decease": 5467,
      "degrees": 5468,
      "lodo": 5469,
      "loins": 5470,
      "solicit": 5471,
      "ghthood": 5472,
      "ently": 5473,
      "entire": 5474,
      "entrails": 5475,
      "coz": 5476,
      "coal": 5477,
      "coil": 5478,
      "covery": 5479,
      "cool": 5480,
      "coals": 5481,
      "ows": 5482,
      "alty": 5483,
      "altogether": 5484,
      "alarum": 5485,
      "ador": 5486,
      "adise": 5487,
      "admi": 5488,
      "butchers": 5489,
      "unity": 5490,
      "uneven": 5491,
      "unborn": 5492,
      "unfit": 5493,
      "unlawful": 5494,
      "unfeigned": 5495,
      "allel": 5496,
      "doves": 5497,
      "doors": 5498,
      "domin": 5499,
      "doms": 5500,
      "dolour": 5501,
      "raw": 5502,
      "raging": 5503,
      "raiment": 5504,
      "ordin": 5505,
      "pel": 5506,
      "ami": 5507,
      "amend": 5508,
      "feits": 5509,
      "feeding": 5510,
      "female": 5511,
      "areth": 5512,
      "vering": 5513,
      "verse": 5514,
      "shades": 5515,
      "shaped": 5516,
      "tic": 5517,
      "geld": 5518,
      "idly": 5519,
      "fatho": 5520,
      "neath": 5521,
      "mang": 5522,
      "mantle": 5523,
      "herbs": 5524,
      "hercul": 5525,
      "tag": 5526,
      "tamed": 5527,
      "pry": 5528,
      "pran": 5529,
      "print": 5530,
      "prunes": 5531,
      "prerogative": 5532,
      "sued": 5533,
      "pox": 5534,
      "potent": 5535,
      "pocket": 5536,
      "contri": 5537,
      "contain": 5538,
      "contem": 5539,
      "tering": 5540,
      "terrible": 5541,
      "trades": 5542,
      "endow": 5543,
      "morous": 5544,
      "cave": 5545,
      "boon": 5546,
      "bolt": 5547,
      "holi": 5548,
      "howe": 5549,
      "hook": 5550,
      "hoped": 5551,
      "homage": 5552,
      "moving": 5553,
      "mocking": 5554,
      "sheet": 5555,
      "shelter": 5556,
      "sia": 5557,
      "siege": 5558,
      "signor": 5559,
      "ounce": 5560,
      "thereon": 5561,
      "marr": 5562,
      "marble": 5563,
      "promotion": 5564,
      "prompt": 5565,
      "produce": 5566,
      "wasp": 5567,
      "whoever": 5568,
      "umny": 5569,
      "composition": 5570,
      "bled": 5571,
      "bleed": 5572,
      "bleeds": 5573,
      "ateful": 5574,
      "sayest": 5575,
      "sap": 5576,
      "sauc": 5577,
      "safer": 5578,
      "savour": 5579,
      "inder": 5580,
      "indire": 5581,
      "indiffer": 5582,
      "ively": 5583,
      "glories": 5584,
      "warning": 5585,
      "agate": 5586,
      "spear": 5587,
      "fox": 5588,
      "foil": 5589,
      "follies": 5590,
      "forest": 5591,
      "bait": 5592,
      "bail": 5593,
      "bache": 5594,
      "wayward": 5595,
      "musty": 5596,
      "timeless": 5597,
      "queens": 5598,
      "pledge": 5599,
      "quet": 5600,
      "quity": 5601,
      "quaint": 5602,
      "brass": 5603,
      "graft": 5604,
      "earldom": 5605,
      "derived": 5606,
      "cipl": 5607,
      "distra": 5608,
      "dispose": 5609,
      "discharged": 5610,
      "distres": 5611,
      "discords": 5612,
      "mistaking": 5613,
      "gentler": 5614,
      "ancest": 5615,
      "hension": 5616,
      "offi": 5617,
      "naw": 5618,
      "exclaim": 5619,
      "looker": 5620,
      "sped": 5621,
      "spurn": 5622,
      "spire": 5623,
      "spices": 5624,
      "spilt": 5625,
      "spiders": 5626,
      "lane": 5627,
      "hears": 5628,
      "heaviness": 5629,
      "abbot": 5630,
      "jocun": 5631,
      "diet": 5632,
      "dict": 5633,
      "division": 5634,
      "strat": 5635,
      "string": 5636,
      "strumpet": 5637,
      "strengthen": 5638,
      "desc": 5639,
      "desir": 5640,
      "grass": 5641,
      "grateful": 5642,
      "ladyship": 5643,
      "breech": 5644,
      "acy": 5645,
      "app": 5646,
      "apri": 5647,
      "appla": 5648,
      "apply": 5649,
      "imped": 5650,
      "impatience": 5651,
      "impatient": 5652,
      "impression": 5653,
      "impud": 5654,
      "plent": 5655,
      "plash": 5656,
      "preced": 5657,
      "preposter": 5658,
      "pregnant": 5659,
      "opposed": 5660,
      "sweets": 5661,
      "bearer": 5662,
      "capti": 5663,
      "captive": 5664,
      "capital": 5665,
      "caparison": 5666,
      "headstrong": 5667,
      "reser": 5668,
      "resort": 5669,
      "park": 5670,
      "partake": 5671,
      "paradise": 5672,
      "parallel": 5673,
      "wrangling": 5674,
      "restored": 5675,
      "madly": 5676,
      "madman": 5677,
      "chival": 5678,
      "presum": 5679,
      "cloth": 5680,
      "aches": 5681,
      "caused": 5682,
      "cheth": 5683,
      "gait": 5684,
      "gape": 5685,
      "rightly": 5686,
      "nursed": 5687,
      "tragic": 5688,
      "welcomes": 5689,
      "shower": 5690,
      "showers": 5691,
      "scal": 5692,
      "scars": 5693,
      "scrup": 5694,
      "treas": 5695,
      "trembles": 5696,
      "lightly": 5697,
      "lightness": 5698,
      "crowned": 5699,
      "peaceful": 5700,
      "calais": 5701,
      "calumny": 5702,
      "banquet": 5703,
      "climb": 5704,
      "climate": 5705,
      "gia": 5706,
      "gious": 5707,
      "powder": 5708,
      "commod": 5709,
      "camp": 5710,
      "horror": 5711,
      "ival": 5712,
      "sensible": 5713,
      "understanding": 5714,
      "underneath": 5715,
      "bestride": 5716,
      "murdering": 5717,
      "farthest": 5718,
      "hourly": 5719,
      "slack": 5720,
      "contend": 5721,
      "charitable": 5722,
      "bandy": 5723,
      "subscri": 5724,
      "pardons": 5725,
      "echo": 5726,
      "royally": 5727,
      "backward": 5728,
      "elsewhere": 5729,
      "tending": 5730,
      "volume": 5731,
      "cures": 5732,
      "curtain": 5733,
      "getting": 5734,
      "higher": 5735,
      "highway": 5736,
      "hush": 5737,
      "needle": 5738,
      "needless": 5739,
      "yellow": 5740,
      "confines": 5741,
      "bench": 5742,
      "wax": 5743,
      "placed": 5744,
      "bodes": 5745,
      "fallen": 5746,
      "husbands": 5747,
      "nibal": 5748,
      "killed": 5749,
      "shamed": 5750,
      "truer": 5751,
      "sung": 5752,
      "sunshine": 5753,
      "temp": 5754,
      "temperate": 5755,
      "turning": 5756,
      "remedies": 5757,
      "bribe": 5758,
      "replied": 5759,
      "witted": 5760,
      "sands": 5761,
      "marrying": 5762,
      "signs": 5763,
      "built": 5764,
      "versy": 5765,
      "prisoners": 5766,
      "villany": 5767,
      "pile": 5768,
      "pire": 5769,
      "piled": 5770,
      "picious": 5771,
      "picture": 5772,
      "doubly": 5773,
      "doubted": 5774,
      "minstrel": 5775,
      "stool": 5776,
      "relish": 5777,
      "itories": 5778,
      "wishing": 5779,
      "sleeps": 5780,
      "biting": 5781,
      "bows": 5782,
      "fighting": 5783,
      "vails": 5784,
      "strain": 5785,
      "strait": 5786,
      "strains": 5787,
      "meditation": 5788,
      "commanding": 5789,
      "chains": 5790,
      "chased": 5791,
      "latest": 5792,
      "coldly": 5793,
      "footman": 5794,
      "appell": 5795,
      "kissing": 5796,
      "sisterhood": 5797,
      "fitted": 5798,
      "woeful": 5799,
      "returned": 5800,
      "value": 5801,
      "plaints": 5802,
      "widows": 5803,
      "painting": 5804,
      "tenderly": 5805,
      "generate": 5806,
      "crew": 5807,
      "create": 5808,
      "hardy": 5809,
      "silken": 5810,
      "wisest": 5811,
      "nearer": 5812,
      "zement": 5813,
      "pastime": 5814,
      "plucks": 5815,
      "antiates": 5816,
      "deeply": 5817,
      "rancour": 5818,
      "hedge": 5819,
      "quicken": 5820,
      "fasting": 5821,
      "profits": 5822,
      "strongly": 5823,
      "worthily": 5824,
      "judged": 5825,
      "resolute": 5826,
      "consumed": 5827,
      "delivered": 5828,
      "actor": 5829,
      "succor": 5830,
      "penny": 5831,
      "counsels": 5832,
      "salute": 5833,
      "shorten": 5834,
      "obsc": 5835,
      "obtain": 5836,
      "torments": 5837,
      "aloof": 5838,
      "barr": 5839,
      "stances": 5840,
      "stirr": 5841,
      "stirs": 5842,
      "stirring": 5843,
      "mockery": 5844,
      "appeared": 5845,
      "praised": 5846,
      "whet": 5847,
      "wales": 5848,
      "wasted": 5849,
      "breathes": 5850,
      "cheerfully": 5851,
      "knowest": 5852,
      "divines": 5853,
      "poisonous": 5854,
      "blessings": 5855,
      "doricles": 5856,
      "harmless": 5857,
      "thorn": 5858,
      "thorough": 5859,
      "thorns": 5860,
      "direful": 5861,
      "fills": 5862,
      "street": 5863,
      "possessed": 5864,
      "skin": 5865,
      "interpret": 5866,
      "interrup": 5867,
      "pays": 5868,
      "palm": 5869,
      "greece": 5870,
      "victorious": 5871,
      "scarlet": 5872,
      "closely": 5873,
      "witnesses": 5874,
      "hurried": 5875,
      "governor": 5876,
      "worshipful": 5877,
      "natures": 5878,
      "chamberlain": 5879,
      "eating": 5880,
      "centre": 5881,
      "created": 5882,
      "creatures": 5883,
      "ethon": 5884,
      "changes": 5885,
      "cowardice": 5886,
      "sixth": 5887,
      "triumphs": 5888,
      "daring": 5889,
      "millions": 5890,
      "nymph": 5891,
      "malicious": 5892,
      "firmly": 5893,
      "beastly": 5894,
      "hideous": 5895,
      "added": 5896,
      "lecture": 5897,
      "christen": 5898,
      "greetings": 5899,
      "cordial": 5900,
      "mutiny": 5901,
      "mounting": 5902,
      "rebel": 5903,
      "solely": 5904,
      "famish": 5905,
      "frighted": 5906,
      "lustful": 5907,
      "tarqu": 5908,
      "drunkard": 5909,
      "listen": 5910,
      "miles": 5911,
      "threats": 5912,
      "suppliant": 5913,
      "conditions": 5914,
      "fruits": 5915,
      "schoolmaster": 5916,
      "dainty": 5917,
      "mourning": 5918,
      "tonight": 5919,
      "contrad": 5920,
      "persuasion": 5921,
      "scarcely": 5922,
      "amazement": 5923,
      "utterance": 5924,
      "temperance": 5925,
      "demands": 5926,
      "dwells": 5927,
      "porter": 5928,
      "throats": 5929,
      "regiment": 5930,
      "festival": 5931,
      "faintly": 5932,
      "miseries": 5933,
      "inclination": 5934,
      "partial": 5935,
      "imagination": 5936,
      "baseness": 5937,
      "flame": 5938,
      "necessary": 5939,
      "shriek": 5940,
      "fruitful": 5941,
      "jade": 5942,
      "beards": 5943,
      "importune": 5944,
      "knighthood": 5945,
      "thirst": 5946,
      "inherited": 5947,
      "whistle": 5948,
      "delights": 5949,
      "assistance": 5950,
      "preserved": 5951,
      "treachery": 5952,
      "jealousies": 5953,
      "witchcraft": 5954,
      "pronounced": 5955,
      "aediles": 5956,
      "bondage": 5957,
      "cros": 5958,
      "crook": 5959,
      "rewards": 5960,
      "rascals": 5961,
      "wonders": 5962,
      "weighty": 5963,
      "penitence": 5964,
      "solemnity": 5965,
      "circumstances": 5966,
      "budge": 5967,
      "songs": 5968,
      "intelli": 5969,
      "choleric": 5970,
      "posterity": 5971,
      "apprehension": 5972,
      "fixed": 5973,
      "publicly": 5974,
      "dedic": 5975,
      "knightly": 5976,
      "luke": 5977,
      "wilful": 5978,
      "ambition": 5979,
      "comforts": 5980,
      "merrily": 5981,
      "merriment": 5982,
      "chastity": 5983,
      "chastisement": 5984,
      "philip": 5985,
      "injuries": 5986,
      "inferior": 5987,
      "nobler": 5988,
      "admitted": 5989,
      "correct": 5990,
      "achieved": 5991,
      "brawl": 5992,
      "brawling": 5993,
      "controversy": 5994,
      "extremest": 5995,
      "awry": 5996,
      "difference": 5997,
      "events": 5998,
      "pupil": 5999,
      "puppet": 6000,
      "swoon": 6001,
      "waning": 6002,
      "issued": 6003,
      "factors": 6004,
      "prodigal": 6005,
      "council": 6006,
      "receives": 6007,
      "baggage": 6008,
      "curious": 6009,
      "coffin": 6010,
      "longest": 6011,
      "mptory": 6012,
      "phoebus": 6013,
      "scolding": 6014,
      "beguile": 6015,
      "beguiled": 6016,
      "assemb": 6017,
      "society": 6018,
      "superflu": 6019,
      "bruised": 6020,
      "disguised": 6021,
      "napkin": 6022,
      "restraint": 6023,
      "embraced": 6024,
      "bankrupt": 6025,
      "buzzard": 6026,
      "beautiful": 6027,
      "wheels": 6028,
      "physician": 6029,
      "mongst": 6030,
      "ugly": 6031,
      "insolence": 6032,
      "haughty": 6033,
      "limits": 6034,
      "expedition": 6035,
      "transported": 6036,
      "nimble": 6037,
      "rheum": 6038,
      "vassal": 6039,
      "attach": 6040,
      "ragged": 6041,
      "supreme": 6042,
      "experienced": 6043,
      "diadem": 6044,
      "imperial": 6045,
      "immediately": 6046,
      "flayed": 6047,
      "welshmen": 6048,
      "testimony": 6049,
      "divorce": 6050,
      "skulls": 6051,
      "reckoning": 6052,
      "advertised": 6053,
      "candle": 6054,
      "reprieve": 6055,
      "rebuke": 6056,
      "convenient": 6057,
      "territories": 6058,
      "canopy": 6059,
      "distinguish": 6060,
      "nightingale": 6061,
      "scurvy": 6062,
      "acknowledge": 6063,
      "troublous": 6064,
      "pestilence": 6065,
      "concluded": 6066,
      "medicine": 6067,
      "puissant": 6068,
      "accomplish": 6069,
      "alize": 6070,
      "cuckold": 6071,
      "dangers": 6072,
      "eloqu": 6073,
      "gulf": 6074,
      "louder": 6075,
      "moder": 6076,
      "phaethon": 6077,
      "peremptory": 6078,
      "scholar": 6079,
      "vineyard": 6080,
      "threes": 6081,
      "thwack": 6082,
      "especially": 6083,
      "assault": 6084,
      "ashore": 6085,
      "notwithstanding": 6086,
      "lodowick": 6087,
      "hercules": 6088,
      "saucy": 6089,
      "bachelor": 6090,
      "distressed": 6091,
      "jocund": 6092,
      "impediment": 6093,
      "precedent": 6094,
      "preposterous": 6095,
      "'!": 6096,
      "'--": 6097,
      "ake": 6098,
      "aust": 6099,
      "afri": 6100,
      "aled": 6101,
      "aery": 6102,
      "aqua": 6103,
      "awares": 6104,
      "bun": 6105,
      "bust": 6106,
      "bass": 6107,
      "bies": 6108,
      "batter": 6109,
      "bits": 6110,
      "bide": 6111,
      "bash": 6112,
      "bier": 6113,
      "boured": 6114,
      "cleave": 6115,
      "cuff": 6116,
      "ckey": 6117,
      "ctive": 6118,
      "ckets": 6119,
      "dir": 6120,
      "dight": 6121,
      "drow": 6122,
      "dive": 6123,
      "dling": 6124,
      "dens": 6125,
      "dast": 6126,
      "dally": 6127,
      "dler": 6128,
      "dances": 6129,
      "duteous": 6130,
      "eg": 6131,
      "eu": 6132,
      "ew": 6133,
      "eves": 6134,
      "eks": 6135,
      "egg": 6136,
      "fen": 6137,
      "fes": 6138,
      "fut": 6139,
      "fter": 6140,
      "fend": 6141,
      "fence": 6142,
      "fling": 6143,
      "fowl": 6144,
      "gor": 6145,
      "gli": 6146,
      "gill": 6147,
      "glove": 6148,
      "gird": 6149,
      "gorge": 6150,
      "gilt": 6151,
      "ghest": 6152,
      "gnaw": 6153,
      "hint": 6154,
      "harms": 6155,
      "ip": 6156,
      "iate": 6157,
      "icester": 6158,
      "ivers": 6159,
      "imed": 6160,
      "ibat": 6161,
      "iquity": 6162,
      "jar": 6163,
      "jump": 6164,
      "kers": 6165,
      "kitch": 6166,
      "ln": 6167,
      "lish": 6168,
      "lts": 6169,
      "lass": 6170,
      "lud": 6171,
      "lph": 6172,
      "lorn": 6173,
      "muse": 6174,
      "mud": 6175,
      "mute": 6176,
      "mended": 6177,
      "nin": 6178,
      "nur": 6179,
      "nuns": 6180,
      "oce": 6181,
      "oling": 6182,
      "omary": 6183,
      "pon": 6184,
      "pant": 6185,
      "pink": 6186,
      "pins": 6187,
      "pond": 6188,
      "pines": 6189,
      "rar": 6190,
      "rus": 6191,
      "rent": 6192,
      "rings": 6193,
      "rates": 6194,
      "rhy": 6195,
      "rarest": 6196,
      "sn": 6197,
      "sou": 6198,
      "sof": 6199,
      "sma": 6200,
      "sinc": 6201,
      "soften": 6202,
      "swarm": 6203,
      "slend": 6204,
      "swine": 6205,
      "scep": 6206,
      "tu": 6207,
      "tir": 6208,
      "tart": 6209,
      "tling": 6210,
      "tatter": 6211,
      "tunes": 6212,
      "tires": 6213,
      "tsey": 6214,
      "terest": 6215,
      "tumbling": 6216,
      "uto": 6217,
      "uce": 6218,
      "uly": 6219,
      "uous": 6220,
      "uble": 6221,
      "udes": 6222,
      "vion": 6223,
      "vap": 6224,
      "vation": 6225,
      "vita": 6226,
      "waf": 6227,
      "zine": 6228,
      "thwart": 6229,
      "ann": 6230,
      "anno": 6231,
      "eres": 6232,
      "erwhelm": 6233,
      "infa": 6234,
      "inci": 6235,
      "inty": 6236,
      "inite": 6237,
      "infirm": 6238,
      "infancy": 6239,
      "injured": 6240,
      "influ": 6241,
      "iniquity": 6242,
      "orch": 6243,
      "ortive": 6244,
      "enro": 6245,
      "ende": 6246,
      "enjoin": 6247,
      "argues": 6248,
      "isk": 6249,
      "ists": 6250,
      "anders": 6251,
      "aty": 6252,
      "atone": 6253,
      "atory": 6254,
      "stal": 6255,
      "stam": 6256,
      "stif": 6257,
      "stage": 6258,
      "stuck": 6259,
      "steter": 6260,
      "stafford": 6261,
      "starts": 6262,
      "stinking": 6263,
      "stony": 6264,
      "toes": 6265,
      "tock": 6266,
      "toss": 6267,
      "mets": 6268,
      "methoughts": 6269,
      "escap": 6270,
      "haw": 6271,
      "haven": 6272,
      "ingly": 6273,
      "ingrat": 6274,
      "sem": 6275,
      "seth": 6276,
      "sear": 6277,
      "secur": 6278,
      "sequi": 6279,
      "sevent": 6280,
      "hew": 6281,
      "beho": 6282,
      "bewr": 6283,
      "bewitch": 6284,
      "belongs": 6285,
      "lebr": 6286,
      "lehill": 6287,
      "lechery": 6288,
      "leicester": 6289,
      "remo": 6290,
      "reel": 6291,
      "rehear": 6292,
      "regreet": 6293,
      "remiss": 6294,
      "remn": 6295,
      "revell": 6296,
      "repaid": 6297,
      "regia": 6298,
      "wheres": 6299,
      "vehe": 6300,
      "chy": 6301,
      "chid": 6302,
      "charms": 6303,
      "chides": 6304,
      "chron": 6305,
      "rod": 6306,
      "road": 6307,
      "rood": 6308,
      "rogues": 6309,
      "forso": 6310,
      "foret": 6311,
      "forrest": 6312,
      "forlorn": 6313,
      "celebr": 6314,
      "ases": 6315,
      "assay": 6316,
      "asite": 6317,
      "asphe": 6318,
      "edic": 6319,
      "edict": 6320,
      "lian": 6321,
      "liver": 6322,
      "liars": 6323,
      "livion": 6324,
      "irish": 6325,
      "web": 6326,
      "keen": 6327,
      "usage": 6328,
      "usale": 6329,
      "uspicious": 6330,
      "rip": 6331,
      "rigour": 6332,
      "dex": 6333,
      "demi": 6334,
      "defect": 6335,
      "detect": 6336,
      "devised": 6337,
      "deposing": 6338,
      "defiance": 6339,
      "degenerate": 6340,
      "soe": 6341,
      "soar": 6342,
      "sober": 6343,
      "solace": 6344,
      "soonest": 6345,
      "enters": 6346,
      "cog": 6347,
      "cox": 6348,
      "coin": 6349,
      "coats": 6350,
      "gomer": 6351,
      "goest": 6352,
      "gozine": 6353,
      "hides": 6354,
      "highest": 6355,
      "eteen": 6356,
      "adam": 6357,
      "adder": 6358,
      "adding": 6359,
      "uned": 6360,
      "unlike": 6361,
      "ungentle": 6362,
      "unrest": 6363,
      "unpeople": 6364,
      "unthri": 6365,
      "ungovern": 6366,
      "undance": 6367,
      "unlikely": 6368,
      "unpleasing": 6369,
      "unprovided": 6370,
      "untainted": 6371,
      "unavoided": 6372,
      "unwield": 6373,
      "unusual": 6374,
      "unsheathe": 6375,
      "unaccustom": 6376,
      "unawares": 6377,
      "univers": 6378,
      "iod": 6379,
      "alla": 6380,
      "allied": 6381,
      "doit": 6382,
      "doings": 6383,
      "doting": 6384,
      "doleful": 6385,
      "uring": 6386,
      "urous": 6387,
      "urbs": 6388,
      "urging": 6389,
      "rap": 6390,
      "rapt": 6391,
      "raign": 6392,
      "raged": 6393,
      "raze": 6394,
      "razed": 6395,
      "rabble": 6396,
      "ragozine": 6397,
      "mab": 6398,
      "map": 6399,
      "mathem": 6400,
      "maim": 6401,
      "magic": 6402,
      "makers": 6403,
      "ordain": 6404,
      "whatever": 6405,
      "pell": 6406,
      "peck": 6407,
      "peasant": 6408,
      "amended": 6409,
      "ambush": 6410,
      "ambass": 6411,
      "fees": 6412,
      "fester": 6413,
      "femin": 6414,
      "verge": 6415,
      "verity": 6416,
      "verdict": 6417,
      "tick": 6418,
      "timer": 6419,
      "tiber": 6420,
      "tides": 6421,
      "gear": 6422,
      "geia": 6423,
      "fable": 6424,
      "faster": 6425,
      "fails": 6426,
      "fabric": 6427,
      "factious": 6428,
      "nearest": 6429,
      "mann": 6430,
      "mankind": 6431,
      "manacles": 6432,
      "hered": 6433,
      "herbert": 6434,
      "lame": 6435,
      "lacks": 6436,
      "laughter": 6437,
      "lazy": 6438,
      "laboured": 6439,
      "lackey": 6440,
      "tax": 6441,
      "taunt": 6442,
      "prat": 6443,
      "prised": 6444,
      "proffer": 6445,
      "sues": 6446,
      "sulph": 6447,
      "poll": 6448,
      "potion": 6449,
      "poised": 6450,
      "cony": 6451,
      "conver": 6452,
      "constr": 6453,
      "convers": 6454,
      "convent": 6455,
      "conserves": 6456,
      "terate": 6457,
      "ternal": 6458,
      "trad": 6459,
      "trun": 6460,
      "trudge": 6461,
      "shores": 6462,
      "shouts": 6463,
      "morsel": 6464,
      "mortimer": 6465,
      "cable": 6466,
      "caged": 6467,
      "box": 6468,
      "hog": 6469,
      "hoo": 6470,
      "hoard": 6471,
      "hoop": 6472,
      "homi": 6473,
      "hoot": 6474,
      "mois": 6475,
      "moans": 6476,
      "molehill": 6477,
      "lete": 6478,
      "goodman": 6479,
      "shear": 6480,
      "shell": 6481,
      "sheets": 6482,
      "teem": 6483,
      "usters": 6484,
      "sied": 6485,
      "sigeia": 6486,
      "simois": 6487,
      "dug": 6488,
      "dul": 6489,
      "ducats": 6490,
      "prover": 6491,
      "prote": 6492,
      "procla": 6493,
      "promp": 6494,
      "peror": 6495,
      "perch": 6496,
      "peration": 6497,
      "perused": 6498,
      "peradventure": 6499,
      "perfume": 6500,
      "period": 6501,
      "inest": 6502,
      "whoop": 6503,
      "compell": 6504,
      "ulation": 6505,
      "vener": 6506,
      "broils": 6507,
      "howl": 6508,
      "howling": 6509,
      "saving": 6510,
      "sails": 6511,
      "sages": 6512,
      "seemed": 6513,
      "seemeth": 6514,
      "worships": 6515,
      "akes": 6516,
      "ctors": 6517,
      "richly": 6518,
      "iege": 6519,
      "gles": 6520,
      "glister": 6521,
      "wary": 6522,
      "agony": 6523,
      "whereby": 6524,
      "whereupon": 6525,
      "spell": 6526,
      "foaming": 6527,
      "bauble": 6528,
      "somebody": 6529,
      "quo": 6530,
      "quis": 6531,
      "bran": 6532,
      "brine": 6533,
      "cide": 6534,
      "civious": 6535,
      "vigour": 6536,
      "usest": 6537,
      "corner": 6538,
      "corpor": 6539,
      "dislike": 6540,
      "distill": 6541,
      "dissent": 6542,
      "discer": 6543,
      "disposed": 6544,
      "diseas": 6545,
      "displeased": 6546,
      "distemper": 6547,
      "disloyal": 6548,
      "distin": 6549,
      "disinherit": 6550,
      "dispute": 6551,
      "discovery": 6552,
      "discipl": 6553,
      "disinherited": 6554,
      "blos": 6555,
      "blots": 6556,
      "blocks": 6557,
      "daylight": 6558,
      "mista": 6559,
      "mistook": 6560,
      "miscarried": 6561,
      "gentry": 6562,
      "petti": 6563,
      "incur": 6564,
      "incense": 6565,
      "mercur": 6566,
      "merits": 6567,
      "swept": 6568,
      "tellus": 6569,
      "exha": 6570,
      "expost": 6571,
      "excels": 6572,
      "external": 6573,
      "fulfill": 6574,
      "spies": 6575,
      "sparing": 6576,
      "handle": 6577,
      "handsome": 6578,
      "handker": 6579,
      "hearth": 6580,
      "clout": 6581,
      "clubs": 6582,
      "lesson": 6583,
      "abate": 6584,
      "abides": 6585,
      "ability": 6586,
      "abuses": 6587,
      "abund": 6588,
      "abundance": 6589,
      "dick": 6590,
      "divers": 6591,
      "digress": 6592,
      "diligence": 6593,
      "stray": 6594,
      "bery": 6595,
      "bering": 6596,
      "berries": 6597,
      "desol": 6598,
      "descried": 6599,
      "desired": 6600,
      "grub": 6601,
      "afres": 6602,
      "brethr": 6603,
      "juno": 6604,
      "jule": 6605,
      "counters": 6606,
      "accompany": 6607,
      "acquit": 6608,
      "acheth": 6609,
      "impl": 6610,
      "impose": 6611,
      "imposition": 6612,
      "impute": 6613,
      "pling": 6614,
      "plough": 6615,
      "fearless": 6616,
      "fairies": 6617,
      "angle": 6618,
      "angled": 6619,
      "anguish": 6620,
      "leather": 6621,
      "calling": 6622,
      "precise": 6623,
      "prevails": 6624,
      "oppose": 6625,
      "sses": 6626,
      "icing": 6627,
      "ical": 6628,
      "greatly": 6629,
      "estab": 6630,
      "lively": 6631,
      "agems": 6632,
      "garter": 6633,
      "garment": 6634,
      "garlic": 6635,
      "iced": 6636,
      "inable": 6637,
      "betro": 6638,
      "fortnight": 6639,
      "residence": 6640,
      "resisted": 6641,
      "interest": 6642,
      "parle": 6643,
      "parch": 6644,
      "parcel": 6645,
      "parlous": 6646,
      "parasite": 6647,
      "pricks": 6648,
      "priami": 6649,
      "ensue": 6650,
      "julius": 6651,
      "file": 6652,
      "fiends": 6653,
      "ficial": 6654,
      "fickle": 6655,
      "wrench": 6656,
      "redou": 6657,
      "flinty": 6658,
      "resteth": 6659,
      "restrain": 6660,
      "blasphe": 6661,
      "longing": 6662,
      "effemin": 6663,
      "poorest": 6664,
      "prescri": 6665,
      "presseth": 6666,
      "clog": 6667,
      "guide": 6668,
      "guild": 6669,
      "aching": 6670,
      "brazen": 6671,
      "bragg": 6672,
      "cheers": 6673,
      "chequ": 6674,
      "gazed": 6675,
      "mightily": 6676,
      "emperor": 6677,
      "emulation": 6678,
      "traged": 6679,
      "traff": 6680,
      "travel": 6681,
      "begging": 6682,
      "besiege": 6683,
      "welkin": 6684,
      "scra": 6685,
      "scare": 6686,
      "scouts": 6687,
      "treble": 6688,
      "treaty": 6689,
      "clap": 6690,
      "lighted": 6691,
      "litter": 6692,
      "henceforward": 6693,
      "tales": 6694,
      "calf": 6695,
      "clip": 6696,
      "gild": 6697,
      "giant": 6698,
      "commune": 6699,
      "ominous": 6700,
      "horrible": 6701,
      "senis": 6702,
      "engross": 6703,
      "helen": 6704,
      "helms": 6705,
      "helmets": 6706,
      "undergo": 6707,
      "purged": 6708,
      "purses": 6709,
      "purposes": 6710,
      "purchased": 6711,
      "thrall": 6712,
      "charters": 6713,
      "subdue": 6714,
      "suborn": 6715,
      "submission": 6716,
      "suburbs": 6717,
      "justly": 6718,
      "justify": 6719,
      "cleft": 6720,
      "denial": 6721,
      "busied": 6722,
      "pleaseth": 6723,
      "tongueless": 6724,
      "curs": 6725,
      "curbs": 6726,
      "finding": 6727,
      "needy": 6728,
      "hopeless": 6729,
      "carrion": 6730,
      "yew": 6731,
      "confined": 6732,
      "confounds": 6733,
      "benedic": 6734,
      "waving": 6735,
      "complete": 6736,
      "bringing": 6737,
      "boding": 6738,
      "fallible": 6739,
      "kennel": 6740,
      "nip": 6741,
      "borough": 6742,
      "kills": 6743,
      "shipp": 6744,
      "shift": 6745,
      "shamest": 6746,
      "shameless": 6747,
      "helping": 6748,
      "overheard": 6749,
      "overthrow": 6750,
      "suns": 6751,
      "ctions": 6752,
      "provoke": 6753,
      "womanish": 6754,
      "witty": 6755,
      "witting": 6756,
      "grumbling": 6757,
      "stride": 6758,
      "stripes": 6759,
      "wrongfully": 6760,
      "choke": 6761,
      "bug": 6762,
      "burial": 6763,
      "player": 6764,
      "players": 6765,
      "ville": 6766,
      "villan": 6767,
      "pipe": 6768,
      "pikes": 6769,
      "xture": 6770,
      "doublet": 6771,
      "threefold": 6772,
      "cushion": 6773,
      "cushions": 6774,
      "swearing": 6775,
      "forms": 6776,
      "passes": 6777,
      "minal": 6778,
      "minster": 6779,
      "sending": 6780,
      "stoc": 6781,
      "stole": 6782,
      "talked": 6783,
      "knell": 6784,
      "relation": 6785,
      "gotten": 6786,
      "deserts": 6787,
      "deserving": 6788,
      "visor": 6789,
      "wishes": 6790,
      "lloa": 6791,
      "sleepy": 6792,
      "bites": 6793,
      "commandment": 6794,
      "spoils": 6795,
      "countryman": 6796,
      "shepherds": 6797,
      "chain": 6798,
      "chaff": 6799,
      "chafed": 6800,
      "winding": 6801,
      "igation": 6802,
      "grove": 6803,
      "breaths": 6804,
      "doubtless": 6805,
      "colder": 6806,
      "footing": 6807,
      "freeze": 6808,
      "asked": 6809,
      "fitter": 6810,
      "fitting": 6811,
      "titles": 6812,
      "watching": 6813,
      "watchful": 6814,
      "cession": 6815,
      "lamp": 6816,
      "lammas": 6817,
      "mirror": 6818,
      "delivery": 6819,
      "entering": 6820,
      "enterprise": 6821,
      "returns": 6822,
      "valued": 6823,
      "throughly": 6824,
      "widower": 6825,
      "remembering": 6826,
      "remembered": 6827,
      "harlot": 6828,
      "painful": 6829,
      "changeling": 6830,
      "creation": 6831,
      "nerves": 6832,
      "bonny": 6833,
      "bonnet": 6834,
      "harder": 6835,
      "supple": 6836,
      "bats": 6837,
      "dyed": 6838,
      "warrants": 6839,
      "touches": 6840,
      "bolder": 6841,
      "plucked": 6842,
      "antial": 6843,
      "wearing": 6844,
      "corners": 6845,
      "ranks": 6846,
      "losses": 6847,
      "strangely": 6848,
      "masqu": 6849,
      "masks": 6850,
      "profound": 6851,
      "posts": 6852,
      "surly": 6853,
      "surname": 6854,
      "survey": 6855,
      "surprised": 6856,
      "entreated": 6857,
      "advanta": 6858,
      "worthier": 6859,
      "worthiest": 6860,
      "quarre": 6861,
      "quarters": 6862,
      "opening": 6863,
      "dishes": 6864,
      "leader": 6865,
      "leading": 6866,
      "presses": 6867,
      "casting": 6868,
      "hoping": 6869,
      "wooers": 6870,
      "ordering": 6871,
      "orderly": 6872,
      "consume": 6873,
      "consuls": 6874,
      "deliverance": 6875,
      "acting": 6876,
      "crad": 6877,
      "moveables": 6878,
      "speedily": 6879,
      "abode": 6880,
      "penury": 6881,
      "salut": 6882,
      "trod": 6883,
      "countermand": 6884,
      "obdur": 6885,
      "obsequ": 6886,
      "obsequi": 6887,
      "oblivion": 6888,
      "flatterer": 6889,
      "bargain": 6890,
      "barbar": 6891,
      "stirrup": 6892,
      "mocked": 6893,
      "appearing": 6894,
      "wondering": 6895,
      "walking": 6896,
      "walks": 6897,
      "throws": 6898,
      "mortality": 6899,
      "sickly": 6900,
      "cheerful": 6901,
      "crimes": 6902,
      "criminal": 6903,
      "mities": 6904,
      "clouded": 6905,
      "thorny": 6906,
      "usurer": 6907,
      "usurps": 6908,
      "elders": 6909,
      "filling": 6910,
      "sprites": 6911,
      "violate": 6912,
      "streak": 6913,
      "consented": 6914,
      "skil": 6915,
      "skins": 6916,
      "intercession": 6917,
      "proceeding": 6918,
      "speeches": 6919,
      "speechless": 6920,
      "liberties": 6921,
      "feasting": 6922,
      "beginning": 6923,
      "briefly": 6924,
      "knavery": 6925,
      "plots": 6926,
      "chertsey": 6927,
      "westminster": 6928,
      "summers": 6929,
      "troubles": 6930,
      "frowning": 6931,
      "scarr": 6932,
      "patiently": 6933,
      "visiting": 6934,
      "darken": 6935,
      "darkly": 6936,
      "fresher": 6937,
      "freshest": 6938,
      "gallop": 6939,
      "gallows": 6940,
      "message": 6941,
      "respects": 6942,
      "ports": 6943,
      "stains": 6944,
      "beggary": 6945,
      "beggarly": 6946,
      "lamentations": 6947,
      "successful": 6948,
      "ginger": 6949,
      "planet": 6950,
      "swim": 6951,
      "swifter": 6952,
      "susan": 6953,
      "space": 6954,
      "slanders": 6955,
      "favourable": 6956,
      "pleasures": 6957,
      "forbids": 6958,
      "forbidden": 6959,
      "malignant": 6960,
      "adders": 6961,
      "pierced": 6962,
      "innocen": 6963,
      "wildly": 6964,
      "shock": 6965,
      "shoot": 6966,
      "teaching": 6967,
      "greets": 6968,
      "drinks": 6969,
      "births": 6970,
      "girls": 6971,
      "mutually": 6972,
      "mutinies": 6973,
      "mounted": 6974,
      "anchors": 6975,
      "reckless": 6976,
      "courageous": 6977,
      "englishman": 6978,
      "drowning": 6979,
      "enjoys": 6980,
      "severity": 6981,
      "proofs": 6982,
      "continu": 6983,
      "continued": 6984,
      "swiftly": 6985,
      "fancies": 6986,
      "staring": 6987,
      "starved": 6988,
      "authorities": 6989,
      "clamorous": 6990,
      "desperately": 6991,
      "effects": 6992,
      "bastardy": 6993,
      "considering": 6994,
      "thinkest": 6995,
      "enforcement": 6996,
      "allowing": 6997,
      "persuaded": 6998,
      "persuades": 6999,
      "sailors": 7000,
      "preparation": 7001,
      "stealing": 7002,
      "wretchedness": 7003,
      "amazon": 7004,
      "arrival": 7005,
      "stabbed": 7006,
      "refuge": 7007,
      "substantial": 7008,
      "wailing": 7009,
      "dwelling": 7010,
      "portion": 7011,
      "smoking": 7012,
      "infinite": 7013,
      "region": 7014,
      "weighs": 7015,
      "weighing": 7016,
      "delpho": 7017,
      "dealing": 7018,
      "properly": 7019,
      "petitions": 7020,
      "privately": 7021,
      "basil": 7022,
      "flag": 7023,
      "wagon": 7024,
      "necessities": 7025,
      "quality": 7026,
      "qualities": 7027,
      "embracements": 7028,
      "grossly": 7029,
      "profession": 7030,
      "directly": 7031,
      "prophecies": 7032,
      "driven": 7033,
      "fretting": 7034,
      "jacks": 7035,
      "james": 7036,
      "wonted": 7037,
      "negligent": 7038,
      "advancement": 7039,
      "ballads": 7040,
      "censured": 7041,
      "election": 7042,
      "elements": 7043,
      "journ": 7044,
      "numbering": 7045,
      "thirsty": 7046,
      "leanness": 7047,
      "conspiracy": 7048,
      "shuts": 7049,
      "complaints": 7050,
      "apparell": 7051,
      "pursues": 7052,
      "plotted": 7053,
      "approaches": 7054,
      "cropp": 7055,
      "fashions": 7056,
      "fifty": 7057,
      "hunting": 7058,
      "smelt": 7059,
      "slide": 7060,
      "slipp": 7061,
      "turtle": 7062,
      "turks": 7063,
      "revoke": 7064,
      "vexation": 7065,
      "offenders": 7066,
      "expressly": 7067,
      "punishment": 7068,
      "lineal": 7069,
      "lineaments": 7070,
      "vanish": 7071,
      "alteration": 7072,
      "affected": 7073,
      "companions": 7074,
      "accusations": 7075,
      "suspected": 7076,
      "agreement": 7077,
      "furnished": 7078,
      "instance": 7079,
      "rosemary": 7080,
      "depth": 7081,
      "feeble": 7082,
      "posterns": 7083,
      "shunn": 7084,
      "examine": 7085,
      "figured": 7086,
      "maidenhead": 7087,
      "fishes": 7088,
      "nettle": 7089,
      "sainted": 7090,
      "hills": 7091,
      "disperse": 7092,
      "rescued": 7093,
      "jewels": 7094,
      "waiting": 7095,
      "instructions": 7096,
      "acquaintance": 7097,
      "bills": 7098,
      "tinent": 7099,
      "atics": 7100,
      "unjustly": 7101,
      "dissembling": 7102,
      "jointure": 7103,
      "control": 7104,
      "bridge": 7105,
      "torches": 7106,
      "neglected": 7107,
      "awful": 7108,
      "ceremony": 7109,
      "lungs": 7110,
      "swoln": 7111,
      "article": 7112,
      "articles": 7113,
      "issues": 7114,
      "detested": 7115,
      "detestable": 7116,
      "manifested": 7117,
      "prodigy": 7118,
      "complexions": 7119,
      "heavily": 7120,
      "floods": 7121,
      "receipt": 7122,
      "reconciled": 7123,
      "culate": 7124,
      "coffers": 7125,
      "filthy": 7126,
      "lurk": 7127,
      "lurking": 7128,
      "pillars": 7129,
      "stumbled": 7130,
      "celsa": 7131,
      "assemble": 7132,
      "wealthy": 7133,
      "decree": 7134,
      "transform": 7135,
      "transgress": 7136,
      "mariner": 7137,
      "brandon": 7138,
      "brittle": 7139,
      "disguise": 7140,
      "gratis": 7141,
      "restrained": 7142,
      "embraces": 7143,
      "thankfulness": 7144,
      "beauties": 7145,
      "innocents": 7146,
      "physicians": 7147,
      "inheritance": 7148,
      "evident": 7149,
      "hatches": 7150,
      "lengthens": 7151,
      "insolent": 7152,
      "studied": 7153,
      "studies": 7154,
      "toys": 7155,
      "melted": 7156,
      "devouring": 7157,
      "collect": 7158,
      "trencher": 7159,
      "trenches": 7160,
      "exceeds": 7161,
      "affrighted": 7162,
      "trimm": 7163,
      "drooping": 7164,
      "attorneys": 7165,
      "blasts": 7166,
      "cardinal": 7167,
      "gamut": 7168,
      "session": 7169,
      "argument": 7170,
      "arguments": 7171,
      "hallowmas": 7172,
      "robbers": 7173,
      "decrees": 7174,
      "shrug": 7175,
      "bristol": 7176,
      "clerk": 7177,
      "clergy": 7178,
      "resemblance": 7179,
      "benefactors": 7180,
      "complices": 7181,
      "spotted": 7182,
      "crutches": 7183,
      "adulteress": 7184,
      "bulk": 7185,
      "finish": 7186,
      "jerusale": 7187,
      "linen": 7188,
      "scaped": 7189,
      "slug": 7190,
      "invention": 7191,
      "ensuing": 7192,
      "environed": 7193,
      "ingrateful": 7194,
      "separated": 7195,
      "requital": 7196,
      "cobham": 7197,
      "adopted": 7198,
      "butterfly": 7199,
      "unluckily": 7200,
      "congeal": 7201,
      "whipped": 7202,
      "momentary": 7203,
      "marquess": 7204,
      "spectators": 7205,
      "spectacle": 7206,
      "bawdy": 7207,
      "audience": 7208,
      "discreet": 7209,
      "exactly": 7210,
      "sparkling": 7211,
      "montgomer": 7212,
      "insinuate": 7213,
      "afterwards": 7214,
      "subdued": 7215,
      "yesternight": 7216,
      "confederate": 7217,
      "creeping": 7218,
      "champion": 7219,
      "qualify": 7220,
      "fantastical": 7221,
      "gossips": 7222,
      "magistrate": 7223,
      "customary": 7224,
      "elected": 7225,
      "fliers": 7226,
      "latin": 7227,
      "lascivious": 7228,
      "niece": 7229,
      "smiled": 7230,
      "scourge": 7231,
      "toucheth": 7232,
      "tumult": 7233,
      "tinker": 7234,
      "threshold": 7235,
      "inveterate": 7236,
      "infringe": 7237,
      "orphans": 7238,
      "argosy": 7239,
      "sticks": 7240,
      "stubborn": 7241,
      "beetle": 7242,
      "reproach": 7243,
      "relieve": 7244,
      "fornication": 7245,
      "ribbon": 7246,
      "deformity": 7247,
      "deceased": 7248,
      "ordinance": 7249,
      "fathom": 7250,
      "mangled": 7251,
      "signories": 7252,
      "savoury": 7253,
      "indifferent": 7254,
      "ancestors": 7255,
      "officious": 7256,
      "exclaims": 7257,
      "stratagems": 7258,
      "april": 7259,
      "applause": 7260,
      "plashy": 7261,
      "reserved": 7262,
      "chivalry": 7263,
      "commodity": 7264,
      "subscribe": 7265,
      "minstrels": 7266,
      "appellant": 7267,
      "obscured": 7268,
      "interpretation": 7269,
      "christendom": 7270,
      "tarquin": 7271,
      "crosby": 7272,
      "assembly": 7273,
      "eloquence": 7274,
      "bunch": 7275,
      "bustle": 7276,
      "battery": 7277,
      "bashful": 7278,
      "dighton": 7279,
      "drowsy": 7280,
      "dastard": 7281,
      "europe": 7282,
      "future": 7283,
      "ludlow": 7284,
      "muddy": 7285,
      "nineteen": 7286,
      "russia": 7287,
      "rhyme": 7288,
      "slender": 7289,
      "ulysses": 7290,
      "vitae": 7291,
      "annoy": 7292,
      "infamy": 7293,
      "infirmity": 7294,
      "orchard": 7295,
      "endea": 7296,
      "steterat": 7297,
      "ingratitude": 7298,
      "security": 7299,
      "bewray": 7300,
      "remote": 7301,
      "whereso": 7302,
      "forsook": 7303,
      "foretell": 7304,
      "unwieldy": 7305,
      "mathematics": 7306,
      "construe": 7307,
      "homicide": 7308,
      "teeming": 7309,
      "proclaimed": 7310,
      "dissentious": 7311,
      "diseases": 7312,
      "distinctly": 7313,
      "mercury": 7314,
      "abundant": 7315,
      "afresh": 7316,
      "brethren": 7317,
      "implore": 7318,
      "effeminate": 7319,
      "traffic": 7320,
      "obdurate": 7321,
      "obsequies": 7322,
      "innocency": 7323,
      "delphos": 7324,
      "jerusalem": 7325,
      "montgomery": 7326,
      "aut": 7327,
      "aby": 7328,
      "aper": 7329,
      "ail": 7330,
      "aved": 7331,
      "astery": 7332,
      "awaking": 7333,
      "akest": 7334,
      "awaken": 7335,
      "abroach": 7336,
      "auspicious": 7337,
      "bard": 7338,
      "bum": 7339,
      "bough": 7340,
      "bars": 7341,
      "bull": 7342,
      "bted": 7343,
      "bary": 7344,
      "bended": 7345,
      "baked": 7346,
      "ctr": 7347,
      "clan": 7348,
      "chea": 7349,
      "cation": 7350,
      "cens": 7351,
      "cass": 7352,
      "chas": 7353,
      "couch": 7354,
      "crot": 7355,
      "ctable": 7356,
      "cado": 7357,
      "dit": 7358,
      "dent": 7359,
      "doff": 7360,
      "dough": 7361,
      "dates": 7362,
      "dles": 7363,
      "dpiece": 7364,
      "daff": 7365,
      "diff": 7366,
      "darts": 7367,
      "ean": 7368,
      "ece": 7369,
      "emer": 7370,
      "eats": 7371,
      "epest": 7372,
      "fou": 7373,
      "fis": 7374,
      "fay": 7375,
      "fust": 7376,
      "fry": 7377,
      "ffi": 7378,
      "fates": 7379,
      "flaw": 7380,
      "fours": 7381,
      "fined": 7382,
      "fuel": 7383,
      "faded": 7384,
      "gan": 7385,
      "glo": 7386,
      "gess": 7387,
      "gil": 7388,
      "ghast": 7389,
      "gance": 7390,
      "gab": 7391,
      "gery": 7392,
      "gments": 7393,
      "gger": 7394,
      "glean": 7395,
      "gnable": 7396,
      "han": 7397,
      "hin": 7398,
      "hon": 7399,
      "hent": 7400,
      "hates": 7401,
      "ix": 7402,
      "ili": 7403,
      "iable": 7404,
      "igree": 7405,
      "jor": 7406,
      "jay": 7407,
      "jum": 7408,
      "jars": 7409,
      "jades": 7410,
      "kates": 7411,
      "lone": 7412,
      "lure": 7413,
      "lars": 7414,
      "lull": 7415,
      "latter": 7416,
      "lines": 7417,
      "lump": 7418,
      "mple": 7419,
      "mpa": 7420,
      "mson": 7421,
      "mass": 7422,
      "mbl": 7423,
      "mps": 7424,
      "mits": 7425,
      "mured": 7426,
      "msey": 7427,
      "minable": 7428,
      "nard": 7429,
      "nity": 7430,
      "nings": 7431,
      "nation": 7432,
      "nations": 7433,
      "och": 7434,
      "oly": 7435,
      "oil": 7436,
      "oty": 7437,
      "osing": 7438,
      "owest": 7439,
      "pse": 7440,
      "pod": 7441,
      "pher": 7442,
      "pper": 7443,
      "pout": 7444,
      "pinc": 7445,
      "pang": 7446,
      "pies": 7447,
      "punk": 7448,
      "pump": 7449,
      "range": 7450,
      "rang": 7451,
      "rite": 7452,
      "rene": 7453,
      "rounds": 7454,
      "sne": 7455,
      "sher": 7456,
      "sci": 7457,
      "scor": 7458,
      "swer": 7459,
      "ssed": 7460,
      "squar": 7461,
      "smock": 7462,
      "sways": 7463,
      "switch": 7464,
      "squire": 7465,
      "slower": 7466,
      "swan": 7467,
      "snar": 7468,
      "tet": 7469,
      "tly": 7470,
      "tant": 7471,
      "tough": 7472,
      "twis": 7473,
      "twin": 7474,
      "tore": 7475,
      "twof": 7476,
      "twink": 7477,
      "taming": 7478,
      "tug": 7479,
      "ugs": 7480,
      "uries": 7481,
      "ucali": 7482,
      "vou": 7483,
      "vall": 7484,
      "vius": 7485,
      "vag": 7486,
      "vince": 7487,
      "vors": 7488,
      "varri": 7489,
      "wers": 7490,
      "whelp": 7491,
      "waded": 7492,
      "xor": 7493,
      "xander": 7494,
      "yers": 7495,
      "yvors": 7496,
      "zie": 7497,
      "thar": 7498,
      "thra": 7499,
      "thim": 7500,
      "thic": 7501,
      "thigh": 7502,
      "thaw": 7503,
      "outrun": 7504,
      "anth": 7505,
      "eral": 7506,
      "erness": 7507,
      "erbear": 7508,
      "ertain": 7509,
      "erpast": 7510,
      "ercharged": 7511,
      "ershades": 7512,
      "erpillars": 7513,
      "init": 7514,
      "infe": 7515,
      "inct": 7516,
      "infi": 7517,
      "inside": 7518,
      "inforced": 7519,
      "inhuman": 7520,
      "invest": 7521,
      "inquired": 7522,
      "index": 7523,
      "incaged": 7524,
      "incorpor": 7525,
      "infallible": 7526,
      "orb": 7527,
      "oro": 7528,
      "orange": 7529,
      "orison": 7530,
      "orators": 7531,
      "oratory": 7532,
      "enor": 7533,
      "ensign": 7534,
      "enious": 7535,
      "enched": 7536,
      "ensible": 7537,
      "envied": 7538,
      "encompass": 7539,
      "encamp": 7540,
      "encounters": 7541,
      "enzie": 7542,
      "arro": 7543,
      "ared": 7544,
      "argu": 7545,
      "argi": 7546,
      "armies": 7547,
      "arith": 7548,
      "argued": 7549,
      "arraign": 7550,
      "ism": 7551,
      "isans": 7552,
      "isheth": 7553,
      "andon": 7554,
      "atrice": 7555,
      "atiate": 7556,
      "stings": 7557,
      "station": 7558,
      "states": 7559,
      "stair": 7560,
      "stinted": 7561,
      "stitch": 7562,
      "stacles": 7563,
      "stoned": 7564,
      "stumbling": 7565,
      "staves": 7566,
      "stake": 7567,
      "lls": 7568,
      "llist": 7569,
      "llables": 7570,
      "tot": 7571,
      "toise": 7572,
      "topping": 7573,
      "tokens": 7574,
      "tossed": 7575,
      "mea": 7576,
      "meats": 7577,
      "meek": 7578,
      "member": 7579,
      "metic": 7580,
      "ese": 7581,
      "novice": 7582,
      "nobody": 7583,
      "noisome": 7584,
      "hal": 7585,
      "hay": 7586,
      "hack": 7587,
      "hacket": 7588,
      "haunts": 7589,
      "habi": 7590,
      "ingenious": 7591,
      "sect": 7592,
      "seque": 7593,
      "secut": 7594,
      "seph": 7595,
      "seats": 7596,
      "seeds": 7597,
      "heath": 7598,
      "hewn": 7599,
      "heated": 7600,
      "beit": 7601,
      "beck": 7602,
      "beque": 7603,
      "betake": 7604,
      "beguil": 7605,
      "befell": 7606,
      "betid": 7607,
      "beheaded": 7608,
      "leaf": 7609,
      "leash": 7610,
      "lethar": 7611,
      "rec": 7612,
      "reth": 7613,
      "reve": 7614,
      "reli": 7615,
      "regent": 7616,
      "redi": 7617,
      "repl": 7618,
      "repre": 7619,
      "reins": 7620,
      "refer": 7621,
      "recomfort": 7622,
      "remit": 7623,
      "recount": 7624,
      "retail": 7625,
      "refresh": 7626,
      "reduce": 7627,
      "relig": 7628,
      "recoil": 7629,
      "wive": 7630,
      "whist": 7631,
      "vein": 7632,
      "itle": 7633,
      "itary": 7634,
      "ittering": 7635,
      "chin": 7636,
      "chion": 7637,
      "chatter": 7638,
      "channe": 7639,
      "chants": 7640,
      "choked": 7641,
      "roe": 7642,
      "robe": 7643,
      "roger": 7644,
      "roots": 7645,
      "robert": 7646,
      "fork": 7647,
      "foren": 7648,
      "forsa": 7649,
      "forged": 7650,
      "forges": 7651,
      "forswore": 7652,
      "forfeits": 7653,
      "forfend": 7654,
      "ceives": 7655,
      "asp": 7656,
      "asks": 7657,
      "asunder": 7658,
      "assign": 7659,
      "assail": 7660,
      "associ": 7661,
      "educ": 7662,
      "lix": 7663,
      "lime": 7664,
      "liby": 7665,
      "lict": 7666,
      "libr": 7667,
      "lical": 7668,
      "limed": 7669,
      "liments": 7670,
      "irons": 7671,
      "wean": 7672,
      "erel": 7673,
      "ereth": 7674,
      "ldst": 7675,
      "lding": 7676,
      "utish": 7677,
      "utters": 7678,
      "notable": 7679,
      "user": 7680,
      "ushed": 7681,
      "rider": 7682,
      "rides": 7683,
      "rift": 7684,
      "riot": 7685,
      "ribs": 7686,
      "ripest": 7687,
      "deity": 7688,
      "deign": 7689,
      "deem": 7690,
      "detain": 7691,
      "decess": 7692,
      "dews": 7693,
      "dels": 7694,
      "demes": 7695,
      "defaced": 7696,
      "deformed": 7697,
      "deucali": 7698,
      "lop": 7699,
      "lope": 7700,
      "losing": 7701,
      "logs": 7702,
      "lowest": 7703,
      "logy": 7704,
      "logic": 7705,
      "lolling": 7706,
      "logger": 7707,
      "withholds": 7708,
      "sop": 7709,
      "sops": 7710,
      "sojourn": 7711,
      "entine": 7712,
      "entation": 7713,
      "entail": 7714,
      "coy": 7715,
      "cote": 7716,
      "coven": 7717,
      "copest": 7718,
      "covet": 7719,
      "copy": 7720,
      "codpiece": 7721,
      "hilt": 7722,
      "hips": 7723,
      "hidden": 7724,
      "owed": 7725,
      "owls": 7726,
      "ourisheth": 7727,
      "alus": 7728,
      "albion": 7729,
      "etry": 7730,
      "admon": 7731,
      "adjudged": 7732,
      "admits": 7733,
      "hiss": 7734,
      "unro": 7735,
      "unking": 7736,
      "unspeak": 7737,
      "uncrown": 7738,
      "unkind": 7739,
      "unable": 7740,
      "unlaw": 7741,
      "ungracious": 7742,
      "unwise": 7743,
      "unstan": 7744,
      "unstain": 7745,
      "unrever": 7746,
      "unquiet": 7747,
      "unmanner": 7748,
      "unconstant": 7749,
      "unprepared": 7750,
      "unsway": 7751,
      "unadvised": 7752,
      "untaught": 7753,
      "unwillingly": 7754,
      "unwholesome": 7755,
      "unmerit": 7756,
      "unapt": 7757,
      "unfelt": 7758,
      "unsettled": 7759,
      "unfurnish": 7760,
      "unpitied": 7761,
      "unhallow": 7762,
      "unfortunate": 7763,
      "unreasonable": 7764,
      "unbuckle": 7765,
      "ungrateful": 7766,
      "unparallel": 7767,
      "unbruised": 7768,
      "unskil": 7769,
      "unwonted": 7770,
      "unsuspected": 7771,
      "unthankfulness": 7772,
      "unsavoury": 7773,
      "dole": 7774,
      "doers": 7775,
      "dotard": 7776,
      "doctors": 7777,
      "doctr": 7778,
      "urer": 7779,
      "urre": 7780,
      "ural": 7781,
      "rase": 7782,
      "rakes": 7783,
      "raught": 7784,
      "rags": 7785,
      "raising": 7786,
      "mam": 7787,
      "maw": 7788,
      "magn": 7789,
      "mament": 7790,
      "macy": 7791,
      "maculate": 7792,
      "kingdoms": 7793,
      "orders": 7794,
      "odils": 7795,
      "pew": 7796,
      "peth": 7797,
      "pelting": 7798,
      "pective": 7799,
      "amour": 7800,
      "amoun": 7801,
      "ample": 7802,
      "ampt": 7803,
      "ambling": 7804,
      "felon": 7805,
      "verns": 7806,
      "veriest": 7807,
      "verified": 7808,
      "shaft": 7809,
      "shaken": 7810,
      "oneous": 7811,
      "tithe": 7812,
      "tile": 7813,
      "tiers": 7814,
      "tiful": 7815,
      "tiply": 7816,
      "tickle": 7817,
      "tigers": 7818,
      "timorous": 7819,
      "willow": 7820,
      "geth": 7821,
      "geon": 7822,
      "geese": 7823,
      "fade": 7824,
      "famed": 7825,
      "neth": 7826,
      "nell": 7827,
      "necks": 7828,
      "nels": 7829,
      "neapo": 7830,
      "nephe": 7831,
      "mans": 7832,
      "manors": 7833,
      "mansion": 7834,
      "heres": 7835,
      "lable": 7836,
      "lawn": 7837,
      "labours": 7838,
      "tast": 7839,
      "tape": 7840,
      "tage": 7841,
      "tables": 7842,
      "tabour": 7843,
      "tails": 7844,
      "taff": 7845,
      "tackle": 7846,
      "prone": 7847,
      "prud": 7848,
      "pratest": 7849,
      "princi": 7850,
      "proro": 7851,
      "prenzie": 7852,
      "sums": 7853,
      "sustain": 7854,
      "ifs": 7855,
      "pots": 7856,
      "poise": 7857,
      "poten": 7858,
      "polit": 7859,
      "pocr": 7860,
      "poets": 7861,
      "postern": 7862,
      "popul": 7863,
      "poetry": 7864,
      "conn": 7865,
      "conject": 7866,
      "conceived": 7867,
      "contains": 7868,
      "contag": 7869,
      "conspire": 7870,
      "constrains": 7871,
      "trum": 7872,
      "ending": 7873,
      "enders": 7874,
      "endless": 7875,
      "shy": 7876,
      "shrun": 7877,
      "morant": 7878,
      "moralize": 7879,
      "upbra": 7880,
      "upholds": 7881,
      "upturned": 7882,
      "uphin": 7883,
      "whipping": 7884,
      "cakes": 7885,
      "cavil": 7886,
      "causer": 7887,
      "bos": 7888,
      "boat": 7889,
      "boss": 7890,
      "hob": 7891,
      "holl": 7892,
      "hose": 7893,
      "hover": 7894,
      "holla": 7895,
      "holes": 7896,
      "holloa": 7897,
      "mocks": 7898,
      "motive": 7899,
      "letting": 7900,
      "sheer": 7901,
      "sheath": 7902,
      "shelves": 7903,
      "text": 7904,
      "sip": 7905,
      "size": 7906,
      "therea": 7907,
      "therewithal": 7908,
      "duck": 7909,
      "dugs": 7910,
      "dump": 7911,
      "dulous": 7912,
      "dumps": 7913,
      "proves": 7914,
      "prolong": 7915,
      "propose": 7916,
      "project": 7917,
      "probation": 7918,
      "progress": 7919,
      "provision": 7920,
      "procures": 7921,
      "prolix": 7922,
      "peruse": 7923,
      "pertain": 7924,
      "perfid": 7925,
      "perfu": 7926,
      "performed": 7927,
      "pertinent": 7928,
      "perceives": 7929,
      "hereof": 7930,
      "heretic": 7931,
      "washed": 7932,
      "thankings": 7933,
      "inexor": 7934,
      "aths": 7935,
      "athwart": 7936,
      "umn": 7937,
      "moreover": 7938,
      "compa": 7939,
      "compet": 7940,
      "ulous": 7941,
      "bleared": 7942,
      "venus": 7943,
      "venuto": 7944,
      "brood": 7945,
      "broil": 7946,
      "brooch": 7947,
      "canor": 7948,
      "canon": 7949,
      "cancell": 7950,
      "cannon": 7951,
      "cannibal": 7952,
      "howsoever": 7953,
      "menace": 7954,
      "outside": 7955,
      "saves": 7956,
      "sacre": 7957,
      "savours": 7958,
      "working": 7959,
      "worcester": 7960,
      "loveth": 7961,
      "lovelier": 7962,
      "rows": 7963,
      "indust": 7964,
      "indign": 7965,
      "indict": 7966,
      "iless": 7967,
      "ilities": 7968,
      "ctures": 7969,
      "richer": 7970,
      "wool": 7971,
      "glance": 7972,
      "glittering": 7973,
      "warp": 7974,
      "agon": 7975,
      "whereat": 7976,
      "wherewith": 7977,
      "specially": 7978,
      "foison": 7979,
      "fooling": 7980,
      "forego": 7981,
      "forefather": 7982,
      "foremost": 7983,
      "forewarn": 7984,
      "baits": 7985,
      "baited": 7986,
      "baleful": 7987,
      "babies": 7988,
      "okes": 7989,
      "voy": 7990,
      "void": 7991,
      "firmament": 7992,
      "makest": 7993,
      "frivol": 7994,
      "ucas": 7995,
      "ucking": 7996,
      "paced": 7997,
      "packing": 7998,
      "quent": 7999
    },
    "merges": [
      [
        "t",
        "h"
      ],
      [
        "o",
        "u"
      ],
      [
        "a",
        "n"
      ],
      [
        "e",
        "r"
      ],
      [
        "i",
        "n"
      ],
      [
        "th",
        "e"
      ],
      [
        "o",
        "r"
      ],
      [
        "e",
        "n"
      ],
      [
        "a",
        "r"
      ],
      [
        "i",
        "s"
      ],
      [
        "an",
        "d"
      ],
      [
        "o",
        "n"
      ],
      [
        "a",
        "t"
      ],
      [
        "s",
        "t"
      ],
      [
        "l",
        "l"
      ],
      [
        "t",
        "o"
      ],
      [
        "m",
        "e"
      ],
      [
        "y",
        "ou"
      ],
      [
        "e",
        "s"
      ],
      [
        "n",
        "o"
      ],
      [
        "h",
        "a"
      ],
      [
        "in",
        "g"
      ],
      [
        "s",
        "e"
      ],
      [
        "o",
        "f"
      ],
      [
        "h",
        "e"
      ],
      [
        "b",
        "e"
      ],
      [
        "l",
        "e"
      ],
      [
        "r",
        "e"
      ],
      [
        "w",
        "i"
      ],
      [
        "w",
        "h"
      ],
      [
        "v",
        "e"
      ],
      [
        "i",
        "t"
      ],
      [
        "c",
        "h"
      ],
      [
        "r",
        "o"
      ],
      [
        "m",
        "y"
      ],
      [
        "f",
        "or"
      ],
      [
        "c",
        "e"
      ],
      [
        "a",
        "s"
      ],
      [
        "a",
        "y"
      ],
      [
        "th",
        "at"
      ],
      [
        "e",
        "d"
      ],
      [
        "l",
        "i"
      ],
      [
        "i",
        "r"
      ],
      [
        "w",
        "e"
      ],
      [
        "er",
        "e"
      ],
      [
        "l",
        "d"
      ],
      [
        "u",
        "t"
      ],
      [
        "k",
        "e"
      ],
      [
        "no",
        "t"
      ],
      [
        "u",
        "s"
      ],
      [
        "r",
        "i"
      ],
      [
        "d",
        "e"
      ],
      [
        "l",
        "o"
      ],
      [
        "wi",
        "th"
      ],
      [
        "s",
        "o"
      ],
      [
        "g",
        "h"
      ],
      [
        "en",
        "t"
      ],
      [
        "c",
        "o"
      ],
      [
        "th",
        "ou"
      ],
      [
        "you",
        "r"
      ],
      [
        "g",
        "o"
      ],
      [
        "h",
        "i"
      ],
      [
        "o",
        "w"
      ],
      [
        "ou",
        "r"
      ],
      [
        "a",
        "l"
      ],
      [
        "e",
        "t"
      ],
      [
        "a",
        "d"
      ],
      [
        "h",
        "is"
      ],
      [
        "b",
        "ut"
      ],
      [
        "u",
        "n"
      ],
      [
        "th",
        "is"
      ],
      [
        "th",
        "er"
      ],
      [
        "i",
        "o"
      ],
      [
        "a",
        "ll"
      ],
      [
        "ha",
        "ve"
      ],
      [
        "ar",
        "d"
      ],
      [
        "l",
        "y"
      ],
      [
        "d",
        "o"
      ],
      [
        "u",
        "r"
      ],
      [
        "gh",
        "t"
      ],
      [
        "r",
        "a"
      ],
      [
        "hi",
        "m"
      ],
      [
        "m",
        "a"
      ],
      [
        "k",
        "ing"
      ],
      [
        "or",
        "d"
      ],
      [
        "o",
        "d"
      ],
      [
        "wh",
        "at"
      ],
      [
        "p",
        "e"
      ],
      [
        "no",
        "w"
      ],
      [
        "th",
        "y"
      ],
      [
        "es",
        "s"
      ],
      [
        "a",
        "m"
      ],
      [
        "f",
        "e"
      ],
      [
        "ar",
        "e"
      ],
      [
        "v",
        "er"
      ],
      [
        "s",
        "ha"
      ],
      [
        "on",
        "e"
      ],
      [
        "t",
        "i"
      ],
      [
        "wi",
        "ll"
      ],
      [
        "g",
        "e"
      ],
      [
        "i",
        "d"
      ],
      [
        "ou",
        "ld"
      ],
      [
        "f",
        "a"
      ],
      [
        "u",
        "e"
      ],
      [
        "c",
        "k"
      ],
      [
        "n",
        "e"
      ],
      [
        "m",
        "an"
      ],
      [
        "h",
        "er"
      ],
      [
        "b",
        "y"
      ],
      [
        "l",
        "a"
      ],
      [
        "t",
        "a"
      ],
      [
        "p",
        "r"
      ],
      [
        "s",
        "u"
      ],
      [
        "co",
        "me"
      ],
      [
        "i",
        "f"
      ],
      [
        "p",
        "o"
      ],
      [
        "c",
        "on"
      ],
      [
        "t",
        "er"
      ],
      [
        "sha",
        "ll"
      ],
      [
        "l",
        "ord"
      ],
      [
        "t",
        "r"
      ],
      [
        "en",
        "d"
      ],
      [
        "s",
        "h"
      ],
      [
        "m",
        "or"
      ],
      [
        "the",
        "e"
      ],
      [
        "u",
        "p"
      ],
      [
        "wh",
        "i"
      ],
      [
        "c",
        "a"
      ],
      [
        "b",
        "o"
      ],
      [
        "ar",
        "t"
      ],
      [
        "h",
        "o"
      ],
      [
        "m",
        "o"
      ],
      [
        "le",
        "t"
      ],
      [
        "go",
        "od"
      ],
      [
        "a",
        "in"
      ],
      [
        "f",
        "ro"
      ],
      [
        "en",
        "ce"
      ],
      [
        "s",
        "he"
      ],
      [
        "t",
        "e"
      ],
      [
        "u",
        "st"
      ],
      [
        "s",
        "i"
      ],
      [
        "ou",
        "n"
      ],
      [
        "th",
        "ere"
      ],
      [
        "ou",
        "s"
      ],
      [
        "d",
        "u"
      ],
      [
        "m",
        "ar"
      ],
      [
        "se",
        "l"
      ],
      [
        "r",
        "y"
      ],
      [
        "we",
        "ll"
      ],
      [
        "s",
        "ir"
      ],
      [
        "p",
        "ro"
      ],
      [
        "the",
        "n"
      ],
      [
        "fro",
        "m"
      ],
      [
        "p",
        "er"
      ],
      [
        "h",
        "ere"
      ],
      [
        "w",
        "as"
      ],
      [
        "i",
        "us"
      ],
      [
        "th",
        "an"
      ],
      [
        "in",
        "e"
      ],
      [
        "a",
        "th"
      ],
      [
        "wh",
        "o"
      ],
      [
        "u",
        "m"
      ],
      [
        "mor",
        "e"
      ],
      [
        "co",
        "m"
      ],
      [
        "u",
        "l"
      ],
      [
        "whi",
        "ch"
      ],
      [
        "b",
        "le"
      ],
      [
        "i",
        "on"
      ],
      [
        "an",
        "t"
      ],
      [
        "st",
        "er"
      ],
      [
        "v",
        "en"
      ],
      [
        "w",
        "ould"
      ],
      [
        "i",
        "ll"
      ],
      [
        "at",
        "e"
      ],
      [
        "b",
        "ro"
      ],
      [
        "c",
        "an"
      ],
      [
        "w",
        "ard"
      ],
      [
        "the",
        "y"
      ],
      [
        "h",
        "ow"
      ],
      [
        "m",
        "en"
      ],
      [
        "s",
        "ay"
      ],
      [
        "on",
        "g"
      ],
      [
        "i",
        "ght"
      ],
      [
        "ou",
        "t"
      ],
      [
        "s",
        "a"
      ],
      [
        "se",
        "e"
      ],
      [
        "w",
        "or"
      ],
      [
        "lo",
        "ve"
      ],
      [
        "the",
        "m"
      ],
      [
        "k",
        "now"
      ],
      [
        "ro",
        "w"
      ],
      [
        "sel",
        "f"
      ],
      [
        "in",
        "d"
      ],
      [
        "a",
        "k"
      ],
      [
        "i",
        "l"
      ],
      [
        "c",
        "t"
      ],
      [
        "the",
        "ir"
      ],
      [
        "ri",
        "ch"
      ],
      [
        "g",
        "re"
      ],
      [
        "i",
        "e"
      ],
      [
        "w",
        "o"
      ],
      [
        "i",
        "ve"
      ],
      [
        "du",
        "ke"
      ],
      [
        "t",
        "is"
      ],
      [
        "g",
        "l"
      ],
      [
        "q",
        "ue"
      ],
      [
        "w",
        "ar"
      ],
      [
        "li",
        "ke"
      ],
      [
        "w",
        "ere"
      ],
      [
        "m",
        "ay"
      ],
      [
        "ha",
        "th"
      ],
      [
        "a",
        "g"
      ],
      [
        "wh",
        "ere"
      ],
      [
        "-",
        "-"
      ],
      [
        "s",
        "pe"
      ],
      [
        "wh",
        "en"
      ],
      [
        "f",
        "o"
      ],
      [
        "for",
        "e"
      ],
      [
        "b",
        "a"
      ],
      [
        "o",
        "k"
      ],
      [
        "u",
        "ch"
      ],
      [
        "n",
        "or"
      ],
      [
        "v",
        "o"
      ],
      [
        "so",
        "me"
      ],
      [
        "f",
        "ir"
      ],
      [
        "ma",
        "ke"
      ],
      [
        "up",
        "on"
      ],
      [
        "e",
        "p"
      ],
      [
        "f",
        "ri"
      ],
      [
        "is",
        "h"
      ],
      [
        "w",
        "ay"
      ],
      [
        "sh",
        "ould"
      ],
      [
        "m",
        "ust"
      ],
      [
        "u",
        "c"
      ],
      [
        "rich",
        "ard"
      ],
      [
        "v",
        "es"
      ],
      [
        "ti",
        "me"
      ],
      [
        "y",
        "et"
      ],
      [
        "que",
        "en"
      ],
      [
        "d",
        "id"
      ],
      [
        "ha",
        "d"
      ],
      [
        "ro",
        "me"
      ],
      [
        "p",
        "le"
      ],
      [
        "er",
        "s"
      ],
      [
        "p",
        "a"
      ],
      [
        "in",
        "k"
      ],
      [
        "q",
        "u"
      ],
      [
        "s",
        "on"
      ],
      [
        "i",
        "i"
      ],
      [
        "b",
        "r"
      ],
      [
        "g",
        "ra"
      ],
      [
        "u",
        "re"
      ],
      [
        "ow",
        "n"
      ],
      [
        "th",
        "ing"
      ],
      [
        "fir",
        "st"
      ],
      [
        "e",
        "ar"
      ],
      [
        "wh",
        "y"
      ],
      [
        "fa",
        "ther"
      ],
      [
        "a",
        "u"
      ],
      [
        "d",
        "er"
      ],
      [
        "go",
        "d"
      ],
      [
        "oun",
        "d"
      ],
      [
        "c",
        "i"
      ],
      [
        "v",
        "i"
      ],
      [
        "ad",
        "y"
      ],
      [
        "ta",
        "ke"
      ],
      [
        "ed",
        "ward"
      ],
      [
        "u",
        "se"
      ],
      [
        "ag",
        "ain"
      ],
      [
        "c",
        "or"
      ],
      [
        "d",
        "is"
      ],
      [
        "ha",
        "st"
      ],
      [
        "it",
        "y"
      ],
      [
        "b",
        "lo"
      ],
      [
        "ent",
        "io"
      ],
      [
        "t",
        "y"
      ],
      [
        "d",
        "ay"
      ],
      [
        "e",
        "l"
      ],
      [
        "de",
        "ath"
      ],
      [
        "m",
        "is"
      ],
      [
        "g",
        "ent"
      ],
      [
        "spe",
        "ak"
      ],
      [
        "g",
        "ive"
      ],
      [
        "p",
        "et"
      ],
      [
        "an",
        "ce"
      ],
      [
        "to",
        "o"
      ],
      [
        "h",
        "en"
      ],
      [
        "in",
        "c"
      ],
      [
        "in",
        "ce"
      ],
      [
        "of",
        "f"
      ],
      [
        "s",
        "er"
      ],
      [
        "w",
        "ord"
      ],
      [
        "n",
        "a"
      ],
      [
        "m",
        "er"
      ],
      [
        "s",
        "we"
      ],
      [
        "hen",
        "ry"
      ],
      [
        "or",
        "t"
      ],
      [
        "te",
        "ll"
      ],
      [
        "th",
        "ink"
      ],
      [
        "he",
        "art"
      ],
      [
        "m",
        "ine"
      ],
      [
        "e",
        "x"
      ],
      [
        "y",
        "or"
      ],
      [
        "yor",
        "k"
      ],
      [
        "gent",
        "le"
      ],
      [
        "the",
        "se"
      ],
      [
        "lo",
        "ok"
      ],
      [
        "ver",
        "y"
      ],
      [
        "rome",
        "o"
      ],
      [
        "f",
        "ul"
      ],
      [
        "s",
        "p"
      ],
      [
        "h",
        "and"
      ],
      [
        "mo",
        "st"
      ],
      [
        "l",
        "an"
      ],
      [
        "su",
        "ch"
      ],
      [
        "m",
        "on"
      ],
      [
        "he",
        "ar"
      ],
      [
        "an",
        "ge"
      ],
      [
        "c",
        "l"
      ],
      [
        "he",
        "a"
      ],
      [
        "l",
        "ess"
      ],
      [
        "ce",
        "ster"
      ],
      [
        "a",
        "b"
      ],
      [
        "j",
        "o"
      ],
      [
        "ou",
        "cester"
      ],
      [
        "gl",
        "oucester"
      ],
      [
        "a",
        "be"
      ],
      [
        "d",
        "i"
      ],
      [
        "st",
        "r"
      ],
      [
        "b",
        "er"
      ],
      [
        "bro",
        "ther"
      ],
      [
        "l",
        "and"
      ],
      [
        "d",
        "es"
      ],
      [
        "g",
        "n"
      ],
      [
        "g",
        "r"
      ],
      [
        "l",
        "ady"
      ],
      [
        "a",
        "f"
      ],
      [
        "b",
        "re"
      ],
      [
        "blo",
        "od"
      ],
      [
        "wi",
        "ck"
      ],
      [
        "n",
        "ess"
      ],
      [
        "o",
        "ther"
      ],
      [
        "j",
        "u"
      ],
      [
        "c",
        "oun"
      ],
      [
        "a",
        "c"
      ],
      [
        "on",
        "our"
      ],
      [
        "an",
        "y"
      ],
      [
        "e",
        "y"
      ],
      [
        "li",
        "e"
      ],
      [
        "ll",
        "ow"
      ],
      [
        "a",
        "p"
      ],
      [
        "li",
        "fe"
      ],
      [
        "ma",
        "de"
      ],
      [
        "st",
        "and"
      ],
      [
        "ne",
        "w"
      ],
      [
        "fri",
        "end"
      ],
      [
        "v",
        "inc"
      ],
      [
        "vinc",
        "entio"
      ],
      [
        "i",
        "m"
      ],
      [
        "war",
        "wick"
      ],
      [
        "ou",
        "l"
      ],
      [
        "pr",
        "ay"
      ],
      [
        "p",
        "l"
      ],
      [
        "t",
        "s"
      ],
      [
        "fe",
        "ar"
      ],
      [
        "fa",
        "ir"
      ],
      [
        "v",
        "ing"
      ],
      [
        "an",
        "g"
      ],
      [
        "le",
        "a"
      ],
      [
        "l",
        "uc"
      ],
      [
        "c",
        "all"
      ],
      [
        "ur",
        "se"
      ],
      [
        "n",
        "ight"
      ],
      [
        "p",
        "re"
      ],
      [
        "m",
        "uch"
      ],
      [
        "i",
        "z"
      ],
      [
        "an",
        "s"
      ],
      [
        "h",
        "onour"
      ],
      [
        "m",
        "ent"
      ],
      [
        "w",
        "n"
      ],
      [
        "l",
        "ing"
      ],
      [
        "o",
        "p"
      ],
      [
        "s",
        "s"
      ],
      [
        "ne",
        "ver"
      ],
      [
        "is",
        "e"
      ],
      [
        "l",
        "t"
      ],
      [
        "ti",
        "on"
      ],
      [
        "ur",
        "n"
      ],
      [
        "i",
        "c"
      ],
      [
        "p",
        "la"
      ],
      [
        "na",
        "me"
      ],
      [
        "d",
        "one"
      ],
      [
        "o",
        "l"
      ],
      [
        "in",
        "ius"
      ],
      [
        "swe",
        "et"
      ],
      [
        "m",
        "i"
      ],
      [
        "gre",
        "at"
      ],
      [
        "t",
        "le"
      ],
      [
        "e",
        "st"
      ],
      [
        "p",
        "art"
      ],
      [
        "ing",
        "s"
      ],
      [
        "be",
        "ar"
      ],
      [
        "tr",
        "ue"
      ],
      [
        "hea",
        "ven"
      ],
      [
        "do",
        "th"
      ],
      [
        "cor",
        "io"
      ],
      [
        "li",
        "ve"
      ],
      [
        "a",
        "ge"
      ],
      [
        "g",
        "ar"
      ],
      [
        "i",
        "ce"
      ],
      [
        "be",
        "fore"
      ],
      [
        "pet",
        "r"
      ],
      [
        "con",
        "d"
      ],
      [
        "th",
        "us"
      ],
      [
        "bo",
        "th"
      ],
      [
        "can",
        "not"
      ],
      [
        "uch",
        "io"
      ],
      [
        "petr",
        "uchio"
      ],
      [
        "w",
        "er"
      ],
      [
        "in",
        "a"
      ],
      [
        "be",
        "t"
      ],
      [
        "pr",
        "ince"
      ],
      [
        "at",
        "ion"
      ],
      [
        "ca",
        "p"
      ],
      [
        "a",
        "way"
      ],
      [
        "no",
        "ble"
      ],
      [
        "he",
        "ad"
      ],
      [
        "be",
        "ing"
      ],
      [
        "ar",
        "m"
      ],
      [
        "se",
        "t"
      ],
      [
        "row",
        "n"
      ],
      [
        "for",
        "t"
      ],
      [
        "for",
        "d"
      ],
      [
        "lan",
        "us"
      ],
      [
        "corio",
        "lanus"
      ],
      [
        "r",
        "es"
      ],
      [
        "ou",
        "gh"
      ],
      [
        "be",
        "en"
      ],
      [
        "in",
        "t"
      ],
      [
        "ha",
        "m"
      ],
      [
        "ho",
        "ld"
      ],
      [
        "p",
        "ar"
      ],
      [
        "p",
        "ri"
      ],
      [
        "en",
        "s"
      ],
      [
        "ju",
        "li"
      ],
      [
        "en",
        "ius"
      ],
      [
        "men",
        "enius"
      ],
      [
        "thou",
        "gh"
      ],
      [
        ",",
        "--"
      ],
      [
        "f",
        "i"
      ],
      [
        "w",
        "r"
      ],
      [
        "juli",
        "et"
      ],
      [
        "re",
        "d"
      ],
      [
        "c",
        "ut"
      ],
      [
        "f",
        "l"
      ],
      [
        "as",
        "s"
      ],
      [
        "se",
        "cond"
      ],
      [
        "gra",
        "ce"
      ],
      [
        "th",
        "o"
      ],
      [
        "ou",
        "se"
      ],
      [
        "re",
        "st"
      ],
      [
        "ma",
        "ster"
      ],
      [
        "a",
        "se"
      ],
      [
        "e",
        "ver"
      ],
      [
        "p",
        "ut"
      ],
      [
        "m",
        "ad"
      ],
      [
        "b",
        "l"
      ],
      [
        "d",
        "own"
      ],
      [
        "p",
        "p"
      ],
      [
        "a",
        "st"
      ],
      [
        "l",
        "ong"
      ],
      [
        "ch",
        "i"
      ],
      [
        "my",
        "self"
      ],
      [
        "bro",
        "ke"
      ],
      [
        "s",
        "oul"
      ],
      [
        "lea",
        "ve"
      ],
      [
        "c",
        "our"
      ],
      [
        "come",
        "s"
      ],
      [
        "p",
        "t"
      ],
      [
        "there",
        "fore"
      ],
      [
        "e",
        "f"
      ],
      [
        "po",
        "or"
      ],
      [
        "wor",
        "ld"
      ],
      [
        "au",
        "ght"
      ],
      [
        "o",
        "ld"
      ],
      [
        "st",
        "ay"
      ],
      [
        "re",
        "e"
      ],
      [
        "de",
        "ed"
      ],
      [
        "again",
        "st"
      ],
      [
        "de",
        "ad"
      ],
      [
        "pr",
        "es"
      ],
      [
        "ve",
        "d"
      ],
      [
        "is",
        "abe"
      ],
      [
        "c",
        "lo"
      ],
      [
        "wi",
        "fe"
      ],
      [
        "it",
        "e"
      ],
      [
        "ange",
        "lo"
      ],
      [
        "g",
        "u"
      ],
      [
        "ar",
        "s"
      ],
      [
        "re",
        "t"
      ],
      [
        "mo",
        "ther"
      ],
      [
        "i",
        "es"
      ],
      [
        "on",
        "t"
      ],
      [
        "h",
        "ouse"
      ],
      [
        "a",
        "ch"
      ],
      [
        "b",
        "id"
      ],
      [
        "c",
        "it"
      ],
      [
        "u",
        "ll"
      ],
      [
        "ti",
        "ll"
      ],
      [
        "ca",
        "use"
      ],
      [
        "a",
        "ce"
      ],
      [
        "b",
        "ra"
      ],
      [
        "c",
        "he"
      ],
      [
        "g",
        "a"
      ],
      [
        "i",
        "gn"
      ],
      [
        "n",
        "ay"
      ],
      [
        "ri",
        "ght"
      ],
      [
        "n",
        "urse"
      ],
      [
        "thou",
        "ght"
      ],
      [
        "cl",
        "ar"
      ],
      [
        "t",
        "ri"
      ],
      [
        "clar",
        "ence"
      ],
      [
        "i",
        "an"
      ],
      [
        "m",
        "ight"
      ],
      [
        "at",
        "ch"
      ],
      [
        "chi",
        "ld"
      ],
      [
        "e",
        "m"
      ],
      [
        "ey",
        "es"
      ],
      [
        "e",
        "ven"
      ],
      [
        "t",
        "ra"
      ],
      [
        "be",
        "g"
      ],
      [
        "b",
        "es"
      ],
      [
        "d",
        "ie"
      ],
      [
        "d",
        "aught"
      ],
      [
        "le",
        "d"
      ],
      [
        "we",
        "l"
      ],
      [
        "in",
        "s"
      ],
      [
        "man",
        "y"
      ],
      [
        "sh",
        "ow"
      ],
      [
        "cit",
        "iz"
      ],
      [
        "s",
        "c"
      ],
      [
        "t",
        "en"
      ],
      [
        "t",
        "re"
      ],
      [
        "friend",
        "s"
      ],
      [
        "bo",
        "ling"
      ],
      [
        "boling",
        "broke"
      ],
      [
        "c",
        "la"
      ],
      [
        "f",
        "t"
      ],
      [
        "u",
        "d"
      ],
      [
        "ll",
        "a"
      ],
      [
        "ii",
        "i"
      ],
      [
        "no",
        "thing"
      ],
      [
        "li",
        "ght"
      ],
      [
        "lord",
        "s"
      ],
      [
        "who",
        "se"
      ],
      [
        "c",
        "rown"
      ],
      [
        "at",
        "ter"
      ],
      [
        "g",
        "ri"
      ],
      [
        "k",
        "es"
      ],
      [
        "l",
        "it"
      ],
      [
        "pe",
        "ace"
      ],
      [
        "h",
        "ence"
      ],
      [
        "t",
        "al"
      ],
      [
        "bet",
        "ter"
      ],
      [
        "isabe",
        "lla"
      ],
      [
        "b",
        "uc"
      ],
      [
        "c",
        "al"
      ],
      [
        "m",
        "ur"
      ],
      [
        "le",
        "ont"
      ],
      [
        "tr",
        "an"
      ],
      [
        "fri",
        "ar"
      ],
      [
        "leont",
        "es"
      ],
      [
        "k",
        "ind"
      ],
      [
        "un",
        "to"
      ],
      [
        "king",
        "ham"
      ],
      [
        "buc",
        "kingham"
      ],
      [
        "b",
        "an"
      ],
      [
        "k",
        "s"
      ],
      [
        "t",
        "ong"
      ],
      [
        "is",
        "on"
      ],
      [
        "daught",
        "er"
      ],
      [
        "c",
        "li"
      ],
      [
        "g",
        "i"
      ],
      [
        "p",
        "ow"
      ],
      [
        "si",
        "c"
      ],
      [
        "com",
        "m"
      ],
      [
        "ci",
        "ous"
      ],
      [
        "tho",
        "se"
      ],
      [
        "c",
        "am"
      ],
      [
        "c",
        "ould"
      ],
      [
        "g",
        "one"
      ],
      [
        "o",
        "m"
      ],
      [
        "h",
        "or"
      ],
      [
        "fa",
        "ce"
      ],
      [
        "po",
        "se"
      ],
      [
        "p",
        "s"
      ],
      [
        "st",
        "ill"
      ],
      [
        "word",
        "s"
      ],
      [
        "c",
        "y"
      ],
      [
        "i",
        "v"
      ],
      [
        "s",
        "en"
      ],
      [
        "t",
        "wo"
      ],
      [
        "ou",
        "d"
      ],
      [
        "en",
        "g"
      ],
      [
        "you",
        "n"
      ],
      [
        "he",
        "l"
      ],
      [
        "de",
        "ar"
      ],
      [
        "un",
        "der"
      ],
      [
        "f",
        "r"
      ],
      [
        "at",
        "es"
      ],
      [
        "be",
        "st"
      ],
      [
        "ke",
        "ep"
      ],
      [
        "mur",
        "der"
      ],
      [
        "tran",
        "io"
      ],
      [
        "mar",
        "c"
      ],
      [
        "gentle",
        "man"
      ],
      [
        "luc",
        "io"
      ],
      [
        "marc",
        "ius"
      ],
      [
        "f",
        "ar"
      ],
      [
        "f",
        "are"
      ],
      [
        "i",
        "ther"
      ],
      [
        "s",
        "ent"
      ],
      [
        "s",
        "ince"
      ],
      [
        "new",
        "s"
      ],
      [
        "g",
        "ue"
      ],
      [
        "h",
        "our"
      ],
      [
        "s",
        "la"
      ],
      [
        "me",
        "an"
      ],
      [
        "con",
        "t"
      ],
      [
        "jo",
        "y"
      ],
      [
        "lit",
        "tle"
      ],
      [
        "sic",
        "inius"
      ],
      [
        "p",
        "ur"
      ],
      [
        "th",
        "r"
      ],
      [
        "f",
        "ull"
      ],
      [
        "on",
        "d"
      ],
      [
        "ch",
        "ar"
      ],
      [
        "un",
        "e"
      ],
      [
        "ear",
        "s"
      ],
      [
        "a",
        "ble"
      ],
      [
        "b",
        "and"
      ],
      [
        "s",
        "le"
      ],
      [
        "mar",
        "gar"
      ],
      [
        "af",
        "ter"
      ],
      [
        "margar",
        "et"
      ],
      [
        "p",
        "ard"
      ],
      [
        "s",
        "or"
      ],
      [
        "u",
        "let"
      ],
      [
        "v",
        "ir"
      ],
      [
        "is",
        "s"
      ],
      [
        "for",
        "th"
      ],
      [
        "un",
        "t"
      ],
      [
        "ta",
        "in"
      ],
      [
        "cap",
        "ulet"
      ],
      [
        "on",
        "ce"
      ],
      [
        "su",
        "b"
      ],
      [
        "ca",
        "me"
      ],
      [
        "youn",
        "g"
      ],
      [
        "pard",
        "on"
      ],
      [
        "e",
        "ch"
      ],
      [
        "j",
        "ust"
      ],
      [
        "o",
        "t"
      ],
      [
        "ha",
        "pp"
      ],
      [
        "ro",
        "y"
      ],
      [
[...]
